{
  "version": "1.0",
  "truncation": null,
  "padding": null,
  "added_tokens": [
    {
      "id": 0,
      "content": "[PAD]",
      "single_word": false,
      "lstrip": false,
      "rstrip": false,
      "normalized": false,
      "special": true
    },
    {
      "id": 1,
      "content": "[UNK]",
      "single_word": false,
      "lstrip": false,
      "rstrip": false,
      "normalized": false,
      "special": true
    },
    {
      "id": 2,
      "content": "[CLS]",
      "single_word": false,
      "lstrip": false,
      "rstrip": false,
      "normalized": false,
      "special": true
    },
    {
      "id": 3,
      "content": "[SEP]",
      "single_word": false,
      "lstrip": false,
      "rstrip": false,
      "normalized": false,
      "special": true
    },
    {
      "id": 4,
      "content": "[MASK]",
      "single_word": false,
      "lstrip": false,
      "rstrip": false,
      "normalized": false,
      "special": true
    }
  ],
  "normalizer": {
    "type": "BertNormalizer",
    "clean_text": true,
    "handle_chinese_chars": true,
    "strip_accents": null,
    "lowercase": true
  },
  "pre_tokenizer": {
    "type": "BertPreTokenizer"
  },
  "post_processor": {
    "type": "TemplateProcessing",
    "single": [
      {
        "SpecialToken": {
          "id": "[CLS]",
          "type_id": 0
        }
      },
      {
        "Sequence": {
          "id": "A",
          "type_id": 0
        }
      },
      {
        "SpecialToken": {
          "id": "[SEP]",
          "type_id": 0
        }
      }
    ],
    "pair": [
      {
        "SpecialToken": {
          "id": "[CLS]",
          "type_id": 0
        }
      },
      {
        "Sequence": {
          "id": "A",
          "type_id": 0
        }
      },
      {
        "SpecialToken": {
          "id": "[SEP]",
          "type_id": 0
        }
      },
      {
        "Sequence": {
          "id": "B",
          "type_id": 1
        }
      },
      {
        "SpecialToken": {
          "id": "[SEP]",
          "type_id": 1
        }
      }
    ],
    "special_tokens": {
      "[CLS]": {
        "id": "[CLS]",
        "ids": [
          2
        ],
        "tokens": [
          "[CLS]"
        ]
      },
      "[SEP]": {
        "id": "[SEP]",
        "ids": [
          3
        ],
        "tokens": [
          "[SEP]"
        ]
      }
    }
  },
  "decoder": {
    "type": "WordPiece",
    "prefix": "##",
    "cleanup": true
  },
  "model": {
    "type": "WordPiece",
    "unk_token": "[UNK]",
    "continuing_subword_prefix": "##",
    "max_input_chars_per_word": 100,
    "vocab": {
      "[PAD]": 0,
      "[UNK]": 1,
      "[CLS]": 2,
      "[SEP]": 3,
      "[MASK]": 4,
      "#": 5,
      "<s>": 6,
      "</s>": 7,
      "།": 8,
      "▁": 9,
      "་": 10,
      "་དང་": 11,
      "་།": 12,
      "འི་": 13,
      "་ལ་": 14,
      "་གྱི་": 15,
      "ས": 16,
      "་ཀྱི་": 17,
      "་ལ": 18,
      "་ནས་": 19,
      "”": 20,
      "ས་": 21,
      "ར": 22,
      ".": 23,
      "་ནི་": 24,
      "“": 25,
      "་པ": 26,
      "་པའི་": 27,
      "ར་": 28,
      "་གི་": 29,
      ":": 30,
      ")": 31,
      "་ནས": 32,
      "་བ": 33,
      "་མ": 34,
      "་ཡོད": 35,
      "་དེ་": 36,
      "(": 37,
      ",": 38,
      "་དེ": 39,
      "་པ་དང་": 40,
      "》": 41,
      "དང་": 42,
      "་སོགས་": 43,
      "་གྱིས་": 44,
      "་བྱེད་པའི་": 45,
      "་དུ": 46,
      "་ཡིན": 47,
      "འི": 48,
      "་བྱེད་པ": 49,
      "་དང": 50,
      "་ཀྱིས་": 51,
      "་ནི": 52,
      "་ན": 53,
      "་ཞིག": 54,
      "་བཅས": 55,
      "་ལས": 56,
      "《": 57,
      "-": 58,
      "▁(": 59,
      "་མི": 60,
      "or": 61,
      "▁“": 62,
      "་བའི་": 63,
      "ད": 64,
      "ལ་": 65,
      "བོད་ཀྱི་": 66,
      "་ཏེ": 67,
      "་བྱས": 68,
      "མ": 69,
      "་དུ་": 70,
      "་སོགས": 71,
      "བ": 72,
      "་རེད": 73,
      "་བྱེད་དགོས": 74,
      "་ཏེ་": 75,
      "ག": 76,
      "་ཞིང་": 77,
      "ལ": 78,
      "་བྱེད་པ་དང་": 79,
      "ཉིན": 80,
      "་བྱས་ནས་": 81,
      "་བྱས་ཏེ་": 82,
      "་དགོས": 83,
      "་ཡང": 84,
      "་ན་": 85,
      "་བྱེད": 86,
      "་ཆེན་པོ": 87,
      "སྤྱི་ཚོགས་": 88,
      "(?)—": 89,
      "་ལས་": 90,
      "ཚེས་": 91,
      "་པ་རེད": 92,
      "|": 93,
      "་བྱས་ཏེ": 94,
      "་གཉིས": 95,
      "ཀྲུང་གོའི་": 96,
      "་སུ": 97,
      "་གཅིག": 98,
      "ན": 99,
      "ལོར་": 100,
      "་མེད": 102,
      "་གིས་": 103,
      "་གསུམ": 104,
      "གི་": 105,
      "་སྟེ": 106,
      "མཚོ་སྔོན་ཞིང་ཆེན": 107,
      "དཔལ་འབྱོར་": 108,
      "▁|": 109,
      "་བཅས་ཀྱི་": 111,
      "མི": 112,
      "▁)": 113,
      "་འདི": 114,
      "་སོགས་ཀྱི་": 115,
      "་ཁ": 116,
      "་རྒྱུ": 117,
      "ཀྱི་": 121,
      "་ཅིང་": 122,
      ";": 123,
      "་པས་": 125,
      "་བྱས་པ": 126,
      "་ཀྱང": 127,
      "་པོ": 128,
      "སྦྲེལ་མཐུད་": 129,
      "▁ཀྲུང་གོའི་": 130,
      "་ཅན": 131,
      "གྱི་": 132,
      "་མོ": 133,
      "ཉིན་": 134,
      "རང་སྐྱོང་ལྗོངས་": 135,
      "་རུ": 136,
      "་ཤིང་": 137,
      "འོ": 138,
      "་འཛུགས་སྐྲུན": 141,
      "ང": 142,
      "ལོའི་": 143,
      "་མང་པོ": 145,
      "་ཡོད་པ་རེད": 146,
      "←": 147,
      "བཟོ་བཅོས་": 148,
      "ཨུ་ཡོན་ལྷན་ཁང་གི": 149,
      "་འདུག": 150,
      "་རེ": 151,
      "་བ་དང་": 152,
      "ལས": 153,
      "མི་དམངས་": 154,
      "་པར་": 155,
      "་བྱས་པའི་": 156,
      "་བཅས་": 157,
      "་གྱིས": 159,
      "]": 160,
      "wikipedia": 162,
      "འཕེལ་རྒྱས": 163,
      "་བྱས་པ་དང་": 164,
      "་ཀྱིས": 165,
      "་པར": 166,
      "་གྱི": 167,
      "s": 168,
      "་ཀྱི": 169,
      "་བྱས་ནས": 170,
      "་ཡང་": 171,
      "་བྱ": 172,
      "འཕེལ་རྒྱས་ཀྱི་": 173,
      "་ལོ": 174,
      "་སྟེ་": 175,
      "་ཡིས་": 176,
      "▁《": 177,
      "་ཡི་": 178,
      "རྒྱལ་ཁབ་ཀྱི་": 179,
      "་རྣམས": 180,
      "་ནང་": 181,
      "་ཀྱང་": 182,
      "་བྱས་ཡོད": 184,
      "དང": 185,
      "་བཞི": 186,
      "ལོ": 187,
      "་གསར་པ": 188,
      "་ཚད": 189,
      "་བྱུང་": 190,
      "་བར": 191,
      "བོད་": 192,
      "་ཡོད་པ": 193,
      "་པའི": 194,
      "་པས": 195,
      "་ཟེར": 196,
      "མི་རིགས་": 197,
      "རྒྱལ་ཁབ་": 198,
      "་ལ་བརྟེན་ནས་": 199,
      "རིག་གནས་": 200,
      "་བྱེད་པར་": 201,
      "་ཙམ": 202,
      "་བྱ་རྒྱུ": 203,
      "་གི": 204,
      "་རྒྱུན་འཁྱོངས": 205,
      "་དག": 206,
      "་གང": 207,
      "་སོ": 209,
      "་ཏུ": 210,
      "་ཆུ": 211,
      "་དོན": 212,
      "་ས": 213,
      "20": 214,
      "▁དེ": 215,
      "རྒྱལ་སྤྱིའི་": 216,
      "ཡི་": 217,
      "་ལྟར": 218,
      "་གཏོང": 219,
      "ཀྲུང་དབྱང་": 220,
      "༥༠": 221,
      "་ཡོད་པ་དང་": 222,
      "འབྲེལ་ཡོད་": 223,
      "ནས་": 224,
      "་ཐུབ": 225,
      "▁མཚོ་སྔོན་": 226,
      "19": 227,
      "བོད་ལྗོངས་": 228,
      "་བར་": 229,
      "་བྱས་པ་རེད": 230,
      "ནང་": 231,
      "༢༠": 232,
      "མང་ཚོགས་ཀྱི་": 233,
      "ཆུ": 234,
      "་ཁྲི": 235,
      "་ཆེན": 236,
      "་མཁན": 237,
      "་རྗེས་": 238,
      "་ལི": 239,
      "་སྐབས་": 240,
      "སྤྱི་ཁྱབ་ཧྲུའུ་ཅ": 241,
      "▁༄༅": 242,
      "་བཤད": 243,
      "སློབ་གསོའི་": 245,
      "་གོ": 246,
      "་དེས་": 247,
      "་དེའི་": 248,
      "▁དེ་ནི་": 249,
      "ཁ": 250,
      "འཛུགས་སྐྲུན": 251,
      "་པ་": 252,
      "་ཅན་གྱི་": 253,
      "་ལྔ": 254,
      "་རི": 255,
      "གནད་དོན": 256,
      "་ལྷ": 257,
      "་བཞིན": 258,
      "སྲིད་གཞུང་གི་": 259,
      "རྒྱལ་ཡོངས་": 260,
      "_": 261,
      "བདེ་འཇགས་": 262,
      "་རྣམས་": 263,
      "་གིས": 264,
      "གྲུབ་འབྲས": 265,
      "་ཅིག": 266,
      "▁མི": 267,
      "་ཅི": 268,
      "་བྱ་དགོས": 269,
      "་ལྡན": 270,
      "གྲོང་ཁྱེར": 271,
      "་ཤིག": 272,
      "གནས": 273,
      "▁བོད་ཀྱི་": 274,
      "བྱ་བ": 275,
      "ད་དུང་": 276,
      "font": 277,
      "་ཡག་པོ": 278,
      "15": 279,
      "་ཞིག་ཡིན": 280,
      "་ལྟར་": 281,
      "་ཡོད་པའི་": 282,
      "ནི་": 283,
      "▁ཞིང་ཆེན་": 284,
      "བཀོད་སྒྲིག": 285,
      "A": 286,
      "འཕེལ་རྒྱས་": 287,
      "སྲིད་གཞུང་གིས་": 288,
      "་ཐོབ": 289,
      "་སྣ་ཚོགས": 290,
      "་རྗེས": 291,
      "འུ": 292,
      "་ལམ": 293,
      "པ": 294,
      "པའི་ཚེས": 295,
      "་གནས": 296,
      "རྩོམ་སྒྲིག": 297,
      "་རིགས": 298,
      "་ཚེ": 299,
      "༽": 300,
      "▁ཟླ": 301,
      "་ཤེས": 302,
      ":5": 303,
      "དབུལ་སྐྱོར་": 304,
      "px": 305,
      "་ཡིན་ལ": 306,
      "རིང་ལུགས་ཀྱི་": 307,
      "་རང": 309,
      "margin": 310,
      "འང": 311,
      "་མཛད": 312,
      "ཞེས་པའི་": 313,
      "་ལེན": 314,
      "་མིན": 315,
      "གནས་ཚུལ": 316,
      "་ཚུལ": 317,
      "་བྱས་ཤིང་": 318,
      "P": 319,
      "30": 320,
      "་དེར་": 321,
      "་གཉིས་ཀྱི་": 322,
      "་མེད་པའི་": 323,
      "་ཐབས": 324,
      "རྣམ་པ": 325,
      "13": 326,
      "གས": 327,
      "་ཡིན་པ": 328,
      "་ཆོས": 329,
      "་ཁང": 330,
      "▁[": 331,
      "བྱ་བའི་": 332,
      "་ཐོག": 333,
      "འ": 334,
      "▁སྤྱི་ཚོགས་": 335,
      "་གཉིས་": 336,
      "་མེད་པ": 337,
      "་སྤེལ": 338,
      "▁དེའི་": 339,
      "ཏང་གི་": 340,
      "་དུས": 341,
      "་བོ": 342,
      "18": 343,
      "ལོ་རྒྱུས་": 344,
      "▁འོན་ཀྱང་": 345,
      "བྱེད་ཐབས": 346,
      "་ཡིན་པ་དང་": 347,
      "སྨན་བཅོས་": 348,
      "གསར་འགྱུར་": 349,
      "་ཆེ": 350,
      "ཡུལ་སྐོར་": 351,
      "སྐུལ་འདེད་གཏོང་བ": 352,
      "་ཤ": 353,
      "་ཐོན": 354,
      "w": 355,
      "14": 356,
      "་གསར་བ": 357,
      "ཁོར་ཡུག་": 358,
      "ལོའི་ཟླ་": 359,
      "ལས་ཀ": 360,
      "་གལ་ཆེན": 361,
      "་འཛིན": 363,
      "་དྲུག": 364,
      "▁ཀྲུང་གོ་": 365,
      "་གཏོང་བ": 366,
      "་ཞིག་རེད": 367,
      "་གཙོ་བོ": 368,
      "སློབ་གསོ": 369,
      "་སྟོང": 370,
      "▁ཟླ་": 371,
      "་རྒྱ": 372,
      "16": 373,
      "་འགྲོ": 374,
      "་ག": 375,
      "་བཟོ": 376,
      "་བྱུང་བ": 377,
      "་ལ་སྐུལ་འདེད": 378,
      "་དཀར": 380,
      "ལས་དོན": 381,
      "ང་": 382,
      "་ཀ": 384,
      "་སྐབས": 385,
      "མ་དངུལ": 386,
      "་ཁྲི་": 387,
      "ཨ": 388,
      "་དགུ": 389,
      "་ཆུང": 390,
      "སློབ་གྲྭ": 391,
      "་ཐད་": 392,
      "སྟོབས་ཤུགས": 393,
      "སློབ་མ": 394,
      "{": 395,
      "་ཐོག་": 396,
      "་སྐོར": 397,
      "▁འདི་ནི་": 398,
      "གྲོང་གསེབ་ཀྱི་": 399,
      "▁ད་དུང་": 400,
      "འགན་འཁྲི": 401,
      "17": 402,
      "རྒྱལ་ཡོངས་ཀྱི་": 403,
      "་གཏོང་དགོས": 404,
      "རིག་གནས": 405,
      "་ལེ": 406,
      "་ཐུབ་པ": 407,
      "་གསལ": 408,
      "་གཏོང་བ་དང་": 409,
      "་བཏང་ནས་": 410,
      "་ངེས": 411,
      "ན་": 412,
      "ཁྱད་ཆོས": 413,
      "\"": 415,
      "སྲིད་ཇུས": 416,
      "་སི": 417,
      "་གསུམ་གྱི་": 418,
      "རང་གི་": 419,
      "ནུས་པ": 420,
      "་འདིའི་": 421,
      "ཕྱོགས་བསྡུས་": 422,
      "་ཡིག": 423,
      "·": 424,
      "་སྤྱོད": 425,
      "་ཡ": 426,
      "་བུ": 427,
      "་ལྡན་པའི་": 428,
      "▁ང་ཚོས་": 429,
      "▁ཁོང་གིས་": 430,
      "པར་": 431,
      "▁བོད་ལྗོངས་": 432,
      "▁རྩོམ་སྒྲིག་པ": 433,
      "་དེ་ནི་": 434,
      "་ཆགས": 435,
      "་ཆ": 436,
      "་འཁོར": 437,
      "་བརྒྱད": 438,
      "རྒྱལ་ཁབ": 440,
      "ཞིང་ཆེན་ཡོངས་ཀྱི": 441,
      "དེ": 442,
      "ཡོད": 443,
      "བསམ་བློ": 444,
      "་ཞིང": 445,
      "་རྒྱལ": 446,
      "་རྩ": 447,
      "་ཡིན་པས": 448,
      "སྤྱི་ཚོགས་ཀྱི་": 449,
      "་སྟོན": 450,
      "ཆ་རྐྱེན": 451,
      "ཀྲུང་གོ་": 452,
      "་བྱུང": 453,
      "ཕྱོགས་ཡོངས་ནས་": 454,
      "S": 455,
      "་ཨ": 456,
      "་འདོད": 457,
      "མི་སྣ": 458,
      "ཆོས": 459,
      "་གཏོང་བའི་": 460,
      "་རོ": 461,
      "་རང་བཞིན་གྱི་": 462,
      "རིགས": 463,
      "འི་སྒོ་ནས་": 464,
      "བསྟན་དོན": 465,
      "འམ་": 466,
      "་འདི་": 467,
      "་ཡིས": 468,
      "n": 469,
      "ས་ཁུལ": 470,
      "འཛུགས་སྐྲུན་": 471,
      "ཚོགས་འདུ": 472,
      "▁·": 473,
      "་བྱེད་ཀྱི་ཡོད": 474,
      "་སུ་": 475,
      "་པ་མ་ཟད": 476,
      "༡༧": 477,
      "▁མ": 478,
      "འི་ནང་": 479,
      "་ཏི": 480,
      "་མཆོག": 481,
      "་ཡུལ": 482,
      "25": 483,
      "་རུ་": 484,
      "y": 485,
      "བར": 486,
      "་བཞིན་ཡོད": 487,
      "་ཕྱིར": 488,
      "o": 489,
      "་དུས་": 490,
      "་སོང་": 491,
      "རྒྱབ་སྐྱོར": 492,
      "་རྫོང་": 493,
      "རྣམ་གྲངས": 494,
      "་སྒྲུབ": 495,
      "རང་ཉིད་ཀྱི་": 496,
      "རང": 497,
      "་དངོས": 498,
      "་གཞན": 499,
      "་ཁག": 500,
      "འདུ་ཤེས": 501,
      "་ཆེ་བ": 502,
      "ལྷ": 503,
      "་རྣམས་ཀྱིས་": 504,
      "ལོའི་ཟླ": 505,
      "I": 506,
      "་བཅུ": 507,
      "ལམ་ལུགས": 508,
      "འབྲེལ་བ": 509,
      "མི་དམངས་ཀྱི་": 510,
      "༼": 511,
      "་ཆོག": 512,
      "ལས་དོན་": 513,
      "མཚོ་སྔོན་": 514,
      "ཐོན་སྐྱེད་": 515,
      "་ཤིང": 516,
      "B": 517,
      "མཉམ་ལས": 518,
      "་ཡོང": 519,
      "་འདྲ": 520,
      "་ཆེན་མོ": 521,
      "་ནང": 522,
      "▁བོད་": 523,
      "▁ཀྲུང་དབྱང་": 524,
      "འཆར་འགོད": 525,
      "ཀ": 526,
      "་ཐང": 527,
      "་བཞིན་": 528,
      "་བཟང་པོ": 529,
      "་ལུང": 530,
      "ཀྲུང་གོ་དང་": 531,
      "▁དེ་ནས་": 532,
      "ང་ཚོས་": 533,
      "་ལྟ་བུ": 534,
      "▁རྒྱལ་ཁབ་": 535,
      "རྩོམ་སྒྲིག་པ": 536,
      "་གནང་བ": 537,
      "་ཞུ": 538,
      "་མོད": 539,
      "ཚེས": 540,
      "ལོ་རྒྱུས": 541,
      "ལས་འགན": 542,
      "ས་ཁུལ་གྱི་": 543,
      "་དང་པོ": 544,
      "C": 545,
      "ལམ": 546,
      "པའི་": 548,
      "ཀྲུང་དབྱང་གི་": 549,
      "་དར": 550,
      "K": 551,
      "ཟླ": 552,
      "མི་རིགས་ཁག་གི་": 553,
      "[": 554,
      "▁དེ་ཡང་": 555,
      "་བརྒྱུད": 556,
      "དུས་ཚོད": 557,
      "་སྐྱེས": 558,
      "་སྒྲ": 559,
      "སྲུང་སྐྱོང": 560,
      "་སྐུ": 561,
      "ས་ཆ": 562,
      "ནས": 563,
      "སོགས་": 564,
      "་སེམས": 565,
      "བར་": 566,
      "་མང": 567,
      "་གྲུབ": 568,
      "་འགྱུར": 569,
      "རྒྱལ་སྲིད་སྤྱི་": 570,
      "རོགས་སྐྱོར": 571,
      "བྱེད་སྒོ": 572,
      "སྲོལ་རྒྱུན་": 573,
      "TRS": 574,
      "་ཚེ་": 575,
      "གྲོང་ཁྱེར་དང་": 576,
      "ལོ་": 577,
      "་བྱེད་རྒྱུ": 578,
      "ངས": 579,
      "དོན": 580,
      "འགྱུར་ལྡོག": 581,
      "་ཆེ་བའི་": 582,
      "རེ་བ": 583,
      "འགྲིམ་འགྲུལ་": 584,
      "▁མིག་སྔར་": 585,
      "་གནང་": 586,
      "T": 587,
      "་ཞེས": 588,
      "་ཞེས་པའི་": 589,
      "་ནུས": 590,
      "་ཡིན་པའི་": 591,
      "ཞེས་": 592,
      "་སྒོར་དུང་ཕྱུར་": 593,
      "་བདུན": 594,
      "་ཚོགས": 595,
      "ཁོར་ཡུག": 596,
      "སྐྱེ་ཁམས་": 597,
      "་མེ": 598,
      "ལོ་རྒྱུས་ཀྱི་": 599,
      "་བྱ་བ": 600,
      "་བརྒྱུད་": 601,
      "24": 602,
      "་ངང་": 603,
      "་བརྗོད": 604,
      "་ཀུན": 605,
      "་རྩེ": 606,
      "གིས་": 607,
      "་རྒྱུའི་": 608,
      "་བཟང": 609,
      "སྒྲ": 610,
      "འཕྲོད་བསྟེན་": 611,
      "༡༠": 612,
      "་བསྟན": 613,
      "་བས": 614,
      "50": 615,
      "ཕན་འབྲས": 616,
      "འཚོ་བའི་": 617,
      "་ལའང་": 618,
      "ངས་": 619,
      "་ཚིག": 620,
      "ཁྱད་ཆོས་ལྡན་པའི་": 621,
      "དུ": 622,
      "pt": 623,
      "སྤྱིའི་": 624,
      "M": 625,
      "ལས་ཀའི་": 626,
      "ཤ": 627,
      "22": 628,
      "་དང་མཉམ་དུ་": 629,
      "ལོར": 630,
      "ཡི་གེ": 631,
      "་འདོན": 632,
      "་དགོས་པ": 633,
      "དགེ་རྒན": 635,
      "་བྱུང་ཡོད": 636,
      "གཏན་འབེབས": 637,
      "་ཕྱོགས": 638,
      "མང་ཚོགས་ལ་": 639,
      "་ཡིན་ཞིང་": 640,
      "ཚད་གཞི": 641,
      "་མཚོ": 642,
      "་ལུགས": 643,
      "ཀྲུའུ་ཞི་": 644,
      "་སྐོར་གྱི་": 645,
      "མཐོ་རིམ་": 646,
      "་ཡོད་པས": 647,
      "་ཚོས་": 648,
      "འཚོ་བ": 649,
      "▁རྒྱལ་ཁབ་ཀྱི་": 650,
      "་མཉམ": 651,
      "་ར": 652,
      "ཁེ་ལས": 653,
      "སྲིད་འཛིན་": 654,
      "་འཕེལ་རྒྱས": 655,
      "་ཏ": 656,
      "་བཅས་ལ་": 657,
      "་མཐོང": 658,
      "p": 659,
      "འཚོལ་": 660,
      "་ཡོད་ཅིང་": 661,
      "དྲ་བའི་འཕྲིན": 662,
      "རིང་": 663,
      "21": 664,
      "་གང་ལེགས": 665,
      "ལྟ་བ": 666,
      "ཆབ་སྲིད་": 667,
      "་སྟངས": 668,
      "▁མི་དམངས་": 669,
      "ཆེད་དོན་": 670,
      "་དབང": 671,
      "་སྣ": 672,
      "་རྒྱུ་རེད": 673,
      "མིང": 674,
      "བརྩམས་ཆོས": 675,
      "ཁྱིམ་ཚང": 676,
      "་པ་ཡིན": 677,
      "འཕེལ་རྒྱས་ལ་": 678,
      "༡༩": 679,
      "བློ": 680,
      "་མགོ": 681,
      "་ལན": 682,
      "ལྗོངས་ཡོངས་ཀྱི་": 683,
      "་རྡོ་རྗེ": 684,
      "དུ་": 685,
      "m": 686,
      "་སྲིད": 687,
      "ཞིང་ལས་": 688,
      "་གནང": 689,
      "གནས་བབ": 690,
      "་ཁང་གི་": 691,
      "སྣོད་བཅུད་": 692,
      "རླངས་འཁོར": 693,
      "གཞི་རྩའི་": 694,
      "▁གཞན་ཡང་": 695,
      "a": 696,
      "་འཇོག": 697,
      "28": 698,
      "མི་": 699,
      "་གནང་བ་རེད": 700,
      "རིག་གནས་ཀྱི་": 701,
      "▁རྒྱལ་སྲིད་སྤྱི་": 702,
      "་སྔར་བས": 703,
      "་ལགས": 704,
      "་ཚད་": 705,
      "▁རྒྱལ་ཡོངས་": 706,
      "u": 707,
      "མཉམ་འབྲེལ་": 708,
      "སློབ་གསོ་": 709,
      "་གླིང": 710,
      "་ཁུལ": 711,
      "རང་བཞིན་གྱི་": 712,
      "་རིམ": 713,
      "སྐུལ་འདེད": 714,
      "23": 715,
      "▁དཀར་ཆག": 716,
      "འགན་ལེན": 717,
      "གཞུང": 718,
      "གཉིས": 719,
      "▁ཀྲུང་གུང་": 720,
      "རིམ་པ": 721,
      "རྒྱུན་ལས་ཨུ་ཡོན": 722,
      "་རྣམས་ཀྱི་": 723,
      "་མཐའ་འཁྱོངས": 724,
      "་བྱ་རྒྱུར་": 725,
      "་སྒོ": 726,
      "་ཁྲོད་": 727,
      "h": 728,
      "་ཚང": 729,
      "ཞིང་ཆེན་": 730,
      "གནད་དོན་ཐག་གཅོད": 731,
      "▁དེ་བཞིན་": 732,
      "མང་ཚོགས་": 733,
      "c": 734,
      "ཁྱབ་ཁོངས": 735,
      "་ཇི་ལྟར": 736,
      "་གཉིས་ཀྱིས་": 737,
      "་ཟ": 738,
      "བཀའ": 739,
      "༡༣": 740,
      "་མི་འདྲ་བ": 741,
      "ོ": 742,
      "འཛམ་གླིང་": 743,
      "་འ": 744,
      "་རྫོང": 745,
      "་ཡོད་ལ": 746,
      "ནང་དོན": 747,
      "་ཡི": 748,
      "་ཐམས་ཅད": 749,
      "26": 750,
      "་རོགས": 751,
      "་སའི་": 752,
      "་དམར": 753,
      "ཐག་གཅོད": 754,
      "་ལེགས་པོ": 755,
      "རྨང་གཞི": 756,
      "ཡུལ": 757,
      "་བརྒྱ": 758,
      "་ཤུགས": 759,
      "་ཤོག": 760,
      "རྣམ་གྲངས་": 761,
      "་རྣམས་ལ་": 762,
      "་རྒྱུན་ཆད་མེད་པར": 763,
      "་རྒྱག": 764,
      "N": 765,
      "་སྡེ": 766,
      "་ཅུང": 767,
      "སྐད": 768,
      "ཞིང་ཆེན་ཏང་ཨུའི་": 769,
      "་རྒྱུར་": 770,
      "་ཐག་གཅོད": 771,
      "▁ད་ལྟ་": 772,
      "k": 773,
      ")(": 774,
      "ཕྱོགས": 775,
      "ལྷག་ཙམ": 776,
      "་ཧ་ཅང": 777,
      "༡༨": 778,
      "་བཞིན་པ": 779,
      "་བྲིས": 780,
      "་རིང་": 781,
      "size": 782,
      "་ནག": 783,
      "འབད་བརྩོན": 784,
      "རྒྱ": 785,
      "་གཏིང་ཟབ": 786,
      "་མེད་": 787,
      "་མར": 788,
      "་བཀོད": 789,
      "ཚན་རིག་དང་མཐུན་པ": 790,
      "གོ་རིམ": 791,
      "༡༢": 792,
      "60": 793,
      "▁ངས་": 794,
      "ཞིབ་འཇུག": 795,
      "་ནས་བཟུང་": 796,
      "་ཁེ": 797,
      "ངེས་པར་དུ་": 798,
      "མེ": 799,
      "་གསུམ་": 800,
      "་སྔར་ལས": 801,
      "སྲིད་གྲོས་ཀྱི་": 802,
      "རྒྱ་ཆེའི་": 803,
      "་མང་དུ": 804,
      "27": 805,
      "ཁ་ཕྱོགས": 806,
      "སྒྲིག་གཞི": 807,
      "་གཏོང་རྒྱུ": 808,
      "Wikipedia": 809,
      "་དགོས་པ་དང་": 810,
      "▁ཨ": 811,
      "སྲུང་སྐྱོབ": 812,
      "་བཅས་ཀྱིས་": 813,
      "བཅས": 814,
      "་ཟབ་མོ": 815,
      "་བཟང་བོ": 816,
      "་ཚ": 817,
      "་རབ་དང་རིམ་པ": 818,
      "ཡིན": 819,
      "line": 820,
      "་ལྟར་ན": 821,
      "་ཞི": 822,
      "▁ཐེངས་འདིའི་": 823,
      "་རྒྱ་མཚོ": 824,
      "་སྒྲིག": 825,
      "ལས་བྱེད་པ": 826,
      "་ཤར": 827,
      "ཟླ་": 828,
      "༡༥": 829,
      "G": 830,
      "་གཞི": 831,
      "ཱ": 832,
      "ཡུལ་སྐོར": 833,
      "་ཡིན་པས་": 834,
      "གཙོ་གནད་": 835,
      "་ནའང་": 836,
      "མཉམ་དུ་": 837,
      "་མཁན་": 838,
      "height": 839,
      "ཅེས་": 840,
      "རིན་ཐང": 841,
      "འཆར་གཞི": 842,
      "▁རང་སྐྱོང་ལྗོངས་": 843,
      "སྲུང་སྐྱོང་": 844,
      "དུས": 845,
      "་དོན་འཁྱོལ": 846,
      "རྫོང": 847,
      "་རྡོ": 848,
      "སྙིང་སྟོབས": 849,
      "་ཆས": 850,
      "ཆ": 851,
      "་བྱེད་དགོས་པ་དང་": 852,
      "་འགའ": 853,
      "family": 854,
      "ལོ་ལྔ་ཚན་བཅུ": 855,
      "ལས་གཞི": 856,
      "སྐུ": 857,
      "་ཝ": 858,
      "་སྐད": 859,
      "་དེ་དག": 860,
      "་ནད": 861,
      "༡༡": 862,
      "གཅིག་གྱུར་": 863,
      "་ཁོ་ན": 864,
      "་པར་མ་ཟད": 865,
      "་ཞེས་": 866,
      "ེ": 867,
      "་མངོན་འགྱུར": 868,
      "top": 869,
      "སློབ་གྲྭའི་": 870,
      "་ཧུར་ཐག": 871,
      "ལས་ཁུངས": 872,
      "་སོ་སོའི་": 873,
      "i": 874,
      "བྱ་ཐབས": 875,
      "宋体": 876,
      "་སྣང": 877,
      "་བསམ": 878,
      "ཞིང་འབྲོག་": 879,
      "དཔེ": 880,
      "་རྩིས": 881,
      "བསམ་བློའི་": 882,
      "ཞབས་ཞུ": 883,
      "་རེད་": 884,
      "་འདིར་": 885,
      "▁ལོ་ཙཱ་བ": 886,
      "འབྲས་བུ": 887,
      "དམག": 888,
      "་ལ་ཤུགས་སྣོན": 889,
      "༡༤": 890,
      "་སྲོལ": 891,
      "ནད": 892,
      "ཚིག": 893,
      "d": 894,
      "འཐབ་ཇུས་": 895,
      "་ཞིག་གི་": 896,
      "གྲངས་ཉུང་མི་རིགས": 897,
      "དམིགས་བསལ་": 898,
      "་དགོན": 899,
      "ཁྲིམས་ལྟར་": 900,
      "wiktionary": 901,
      "ཆབ་སྲིད་ཀྱི་": 902,
      "འཕེལ་རྒྱས་དང་": 903,
      "ཕ": 904,
      "▁ཆུ": 905,
      "ལས་དོན་ལ་": 906,
      "་གྲོང་ཚོའི་": 907,
      "ཞེས": 908,
      "་ཚང་མ་": 909,
      "་བཞག": 910,
      "འབྱུང་ཁུངས": 911,
      "▁༢༠༡༢": 912,
      "་རྒྱས": 913,
      "29": 914,
      "་བཀོད་སྒྲིག": 915,
      "་དང་དེ་བཞིན་": 916,
      "ཉམས་མྱོང": 917,
      "་འབྱུང": 918,
      "་ཞུས": 919,
      "་བསྐྲུན": 920,
      "་མའི་": 921,
      "༡༦": 922,
      "རང་བཞིན": 923,
      "་བཏང་སྟེ་": 924,
      "་རྟགས": 925,
      "▁༢༠༡༣": 926,
      "་མཚོན": 927,
      "▁རྩོམ་ཡིག་རྗེས་མ": 928,
      "རྩོམ་ཡིག་སྔོན་མ": 929,
      "་ལོག": 930,
      "བོད་ཡིག་": 931,
      "མང་ཚོགས": 932,
      "་བྱེད་དགོས་པ": 933,
      "་ཉམས": 934,
      "ཆོས་ལུགས་": 935,
      "འཛམ་གླིང་གི་": 936,
      "རི": 937,
      "་ཟིན": 938,
      "་ཧ": 939,
      "e": 940,
      "དོ་དམ་": 941,
      "་ཀྲང": 942,
      "གྲོང་གསེབ་": 943,
      "bottom": 944,
      "ལུས": 945,
      "་ཏུ་": 946,
      "སློབ་མའི་": 947,
      "བྱ": 948,
      "་རང་བཞིན": 949,
      "རང་ལྗོངས་ཀྱི་": 950,
      "་ཡོད་པས་": 951,
      "་སེལ": 952,
      "ངོས་འཛིན": 953,
      "་ལག་བསྟར": 954,
      "སེམས": 955,
      "་སྐྱེ": 956,
      "r": 957,
      "་ཝེ": 958,
      "2015": 959,
      "དགོས་མཁོ": 960,
      "་ཁང་": 961,
      "in": 962,
      "་གཅིག་གི་": 963,
      "▁ཀྲུང་གོ་དང་": 964,
      "་བྱེད་ཤུགས་ཆེ་རུ": 965,
      "་དངོས་སུ": 966,
      "སྐད་ཆ": 967,
      "རྨང་གཞིའི་": 968,
      "ི": 969,
      "་བསྡུ": 970,
      "བཅས་ཀྱི་": 971,
      "་མེད་པར": 972,
      "་དོ": 973,
      "་མངོན": 974,
      "བུ": 975,
      "་འབུམ": 976,
      "་ཅ": 977,
      "ང་ཚོའི་": 978,
      "་ལེགས": 979,
      "་ལྟ་བུའི་": 980,
      "/": 981,
      "་ཁྲ": 982,
      "དོ་དམ": 983,
      "མགོ": 984,
      "ཕྱི": 985,
      "ཐ་སྙད": 986,
      "་རྟ": 987,
      "མི་དམངས་འཐུས་ཚོ": 988,
      "E": 989,
      "་ཤིན་ཏུ": 990,
      "བས": 991,
      ":2;": 992,
      "གས་ཀྱི་": 993,
      "ཚན་རྩལ་": 994,
      "j": 995,
      "གཅིག": 996,
      "་ནོར": 997,
      "གློག": 998,
      "་དག་": 999,
      "འཐུས་མི": 1000,
      "ཆེས་": 1001,
      "་འདི་ནི་": 1002,
      "ཆུ་ཚད": 1003,
      "ལྷག": 1004,
      "གྲོང་ཚོ": 1005,
      "་གཉེར": 1006,
      "ྀ": 1007,
      "་བྱུང་བའི་": 1008,
      "ཤེས་བྱ": 1009,
      "ལྟེ་གནས": 1010,
      "སྲིད་གཞུང་": 1011,
      "བྱིས་པ": 1012,
      "ཡིད་ཆེས": 1013,
      "ལག་བསྟར": 1014,
      "40": 1015,
      "་ངན": 1016,
      ";}.": 1017,
      "b": 1018,
      "མཉམ་ལས་": 1019,
      "་གྲངས": 1020,
      "ཐོག་མར་": 1021,
      "=": 1022,
      "▁ཁོས་": 1023,
      "་བསྡུས": 1024,
      "D": 1025,
      "་བསྒྱུར": 1026,
      "་དགོས་པའི་": 1027,
      "འགན་སྲུང་": 1028,
      "་ནང་གི་": 1029,
      "ཞིབ་བཤེར": 1030,
      "་དང་སྤྱི་ཚོགས་": 1031,
      "བོད་རང་སྐྱོང་": 1032,
      "་བཏང་བ": 1033,
      "གྲོས་མོལ": 1034,
      "པར": 1035,
      "▁\"": 1036,
      "་གཞོན་པ": 1037,
      "ا": 1038,
      "སྨན": 1039,
      "ཐོན་རྫས": 1040,
      "ཞབས་ཞུའི་": 1041,
      "་གཉིས་པ": 1042,
      "H": 1043,
      "▁ཁ": 1044,
      "»": 1045,
      "སྙན་ངག": 1046,
      "་ཚོ": 1047,
      "ཡང་": 1048,
      "་ལག": 1049,
      "ལག་རྩལ": 1050,
      "ནུས་པ་འདོན་སྤེལ": 1051,
      "་བདེ": 1052,
      "གྲོང་ཁྱེར་": 1053,
      "▁མི་རིགས་": 1054,
      "་དམ": 1055,
      "་ནོ": 1056,
      "ཟླ་གསུམ་": 1057,
      "བྱ་སྤྱོད": 1058,
      "འཛུགས་སྐྲུན་གྱི་": 1059,
      "་རྒྱུད": 1060,
      "གོ་སྐབས": 1061,
      "ལག་རྩལ་": 1062,
      "ཐབས་ལམ": 1063,
      "31": 1064,
      "་བྱ་བའི་": 1065,
      "ཕུལ་བྱུང་": 1066,
      "་བྱེད་བཞིན་ཡོད": 1067,
      "་ཁོ": 1068,
      "ཁྱོན་ཡོངས་ནས་": 1069,
      "་བའི": 1070,
      "རྩ་འཛུགས": 1071,
      "▁༢༠༠༨": 1072,
      "བསམ་འཆར": 1073,
      "་ཡོང་བ": 1074,
      "་དུ་མ": 1075,
      "འགོ་ཁྲིད": 1076,
      "མུ་མཐུད་དུ་": 1077,
      "རང་རྒྱལ་གྱི་": 1078,
      "%": 1079,
      "ཙམ": 1080,
      "དེའི་": 1081,
      "གསར་འགྱུར་དྲ་བ": 1082,
      "ད་": 1083,
      "མེ་ཏོག": 1084,
      "སློབ་སྦྱོང": 1085,
      "་རྒྱུ་དང་": 1086,
      "L": 1087,
      "གནས་སྤོ་": 1088,
      "▁གལ་ཏེ་": 1089,
      "ཆེད་དུ་": 1090,
      "རང་བྱུང་": 1091,
      "z": 1092,
      "དྲིལ་བསྒྲགས་": 1093,
      "རྒྱུ་རྐྱེན": 1094,
      "en": 1095,
      "ཐུན་མོང་གི་": 1096,
      "་ཐག": 1097,
      "ངའི་": 1098,
      "2016": 1099,
      "་ཐད་ཀྱི་": 1100,
      "'": 1101,
      "er": 1102,
      "འགན་སྲུང": 1103,
      "བྱུང་བར་གཞིགས་ན": 1104,
      "་ད": 1105,
      "ཡིག་ཆ": 1106,
      "▁ལོ": 1107,
      "དུས་རབས": 1108,
      "70": 1109,
      "་བཀྲ་ཤིས": 1110,
      "དོན་རྐྱེན": 1111,
      "་བཏང": 1112,
      "་བར་གྱི་": 1113,
      "འམ": 1114,
      "་ཡོངས་ཀྱི་": 1115,
      "▁ཤེས་རྟོགས་": 1116,
      "བླང་བྱ": 1117,
      "དབུལ་སྒྲོལ་": 1118,
      "ཐོན་ལས་": 1119,
      "ཆ་འཕྲིན་": 1120,
      "རྡོ": 1121,
      "་སྨན": 1122,
      "100": 1123,
      "ཇ": 1124,
      "ཐོན་ཁུངས": 1125,
      "མི་རིགས་ཀྱི་": 1126,
      "་ཀི": 1127,
      "་གསུངས": 1128,
      "དེང་རབས་": 1129,
      "་ཆེད་": 1130,
      "ནང": 1131,
      "ཞི་ཅིན་ཕེན་གྱིས་": 1132,
      "ལས་དོན་གྱི་": 1133,
      "་རིན་པོ་ཆེ": 1134,
      "▁ལྷ": 1135,
      "སྤྱི་ཚོགས་རིང་ལུ": 1136,
      "l": 1137,
      "་བེད་སྤྱོད": 1138,
      "་ནུས་ལྡན": 1139,
      "་སྒོར་དུང་ཕྱུར": 1140,
      "་པའོ": 1141,
      "་རྒྱན": 1142,
      "▁དེས་": 1143,
      "་འཕེལ": 1144,
      "བཤད": 1145,
      "ཁྱད་པར": 1146,
      "ཉེན་ཁ": 1147,
      "་དཔོན": 1148,
      "ཚོགས་པ": 1149,
      "་ཆེད": 1150,
      "་རེ་རེ": 1151,
      "་སོགས་ལ་": 1152,
      "་མདོ": 1153,
      "lo": 1154,
      "ཟླ་ལྔ་བ་": 1155,
      "མཚོ": 1156,
      "་གསོ": 1157,
      "དངོས་པོ": 1158,
      "འབྱོར་འབྲིང་": 1159,
      "ལག": 1160,
      "ཾ": 1161,
      "ར་བ": 1162,
      "རྒྱུ་ཆ": 1163,
      "་རྩལ": 1164,
      "བསྟན་པ": 1165,
      "འང་": 1166,
      "ཏ": 1167,
      "་མཆོད": 1168,
      "་ཉིད": 1169,
      "དབང་ཆ": 1170,
      "་རྟོགས": 1171,
      "བོད་ལྗོངས་ཀྱི་": 1172,
      "་འདུས": 1173,
      "་ཞེས་པ": 1174,
      "་ཞིག་ཏུ": 1175,
      "་ཚན": 1176,
      "་རིས": 1177,
      "་ཤི": 1178,
      "བྱས་པར་གཞིགས་ན": 1179,
      "་བཅོས": 1180,
      "་ཁུལ་གྱི་": 1181,
      "མང་ཚོགས་ཀྱིས་": 1182,
      "ི་ཚོགས་འཕེལ་རྒྱས": 1183,
      "་དགའ": 1184,
      "་སྤྲོད": 1185,
      "་སྒོས་": 1186,
      "▁བ": 1187,
      "མ་ལག": 1188,
      "བྱ་བར་": 1189,
      "རི་མོ": 1190,
      "ཡོང་འབབ": 1191,
      "༡༠༠": 1192,
      "་རིང": 1193,
      "ངོ་བོ": 1194,
      "དུས་རབས་གསར་པའི་": 1195,
      "а": 1196,
      "ལྷག་ཙམ་": 1197,
      "་ཆད": 1198,
      "་འོག": 1199,
      "▁དེ་མིན་": 1200,
      "འི་ངང་": 1201,
      "་ཐེ": 1202,
      "▁དཔེར་ན": 1203,
      "རྩ་བའི་": 1204,
      "༥༠༠": 1205,
      "t": 1206,
      "གནའ་བོའི་": 1207,
      "་བྱ་རྒྱུའི་": 1208,
      "ས་གནས་": 1209,
      "་དཀར་པོ": 1210,
      "རྟ": 1211,
      "་བཞེངས": 1212,
      "གཏམ་རྒྱུད": 1213,
      "་ང": 1214,
      "་ཐུབ་པའི་": 1215,
      "བྱ་འགུལ": 1216,
      "ཁོང་གིས་": 1217,
      "ཏང་གི་ཚོགས་ཆེན་": 1218,
      "་རྒྱུར་སྐུལ་འདེད": 1219,
      "་ཁྲིད": 1220,
      "་རྒྱུན": 1221,
      "དཔལ་འབྱོར་དང་སྤྱ": 1222,
      "་ཤོར": 1223,
      "་སྤེལ་བ": 1224,
      "་བས་": 1225,
      "རྩ་དོན": 1226,
      "་གླེང": 1227,
      "་འབབ": 1228,
      "་བཏོན": 1229,
      "དམིགས་ཚད": 1230,
      "ཐོན་ལས": 1231,
      "ཌ": 1232,
      "་སོང": 1233,
      "ཀྲུའུ་ཞི": 1234,
      "་མཁར": 1235,
      "་ཁུ": 1236,
      "་སེ": 1237,
      "་ཐིག": 1238,
      "ཡོད་པ་དང་": 1239,
      "་སྐྱིད": 1240,
      "ལམ་བུ": 1241,
      "་རྫོང་གི་": 1242,
      "་ཡོན": 1243,
      "་མཁན་གྱི་": 1244,
      "ནང་དུ་": 1245,
      "་གསར": 1246,
      "་ཐེབས": 1247,
      "ཚོང་དོན་": 1248,
      "་བྱེད་མཁན": 1249,
      "འེ": 1250,
      "བེད་སྤྱོད": 1251,
      "དམངས་འཐུས་ཚོགས་": 1252,
      "་ཧོ": 1253,
      "བརྙན་འཕྲིན་": 1254,
      "་ཐོབ་པ": 1255,
      "ཀྲུང་གོ": 1256,
      "་བྱེད་སྐབས་": 1257,
      "་བཞུགས": 1258,
      "་གཞུང": 1259,
      "་ཕོ": 1260,
      "་ཅིན": 1261,
      "་བྱུང་བ་དང་": 1262,
      "▁ཏང་གི་": 1263,
      "ལག་ལེན": 1264,
      "རོགས་སྐྱོར་": 1265,
      "སྲིད་ཇུས་": 1266,
      "འི་ཐོག་": 1267,
      "རྒྱུ": 1268,
      "》《": 1269,
      "་གཟུགས": 1270,
      "་དག་གི་": 1271,
      "གྱིས་": 1272,
      "གཞི་རིམ་": 1273,
      "་འབྲི": 1274,
      "▁༢༠༡༠": 1275,
      "F": 1276,
      "་འཇུག": 1277,
      "་གཅོད": 1278,
      "་ཞིག་གིས་": 1279,
      "ཉ": 1280,
      "སླར་ཡང་": 1281,
      "་བཤད་པ": 1282,
      "་ཐོ": 1283,
      "ྭ": 1284,
      "་འཛུགས": 1285,
      "དམག་དོན་": 1286,
      "རང་སྐྱོང་ལྗོངས": 1287,
      "དཔལ་འབྱོར་དང་": 1288,
      "མཚོ་སྔོན་གྱི་": 1289,
      "▁ད": 1290,
      "་ཡིན་པ་རེད": 1291,
      "རྟེན་གཞི": 1292,
      "་བླངས": 1293,
      "ཕྱག": 1294,
      "User": 1295,
      "དགོངས་པ": 1296,
      "▁2015": 1297,
      "འི་སྐོར་གྱི་": 1298,
      "ལས་རིགས": 1299,
      "་སྒྱུར": 1300,
      "བཅས་": 1301,
      "དུས་ཆེན": 1302,
      "▁ཤ": 1303,
      "སྐབས": 1304,
      "▁གསར་འགོད་པས་": 1305,
      "་ལྟ": 1306,
      "་བརྟན": 1307,
      "ས་པ": 1308,
      "▁གཅིག": 1309,
      "སྦས་": 1310,
      "འི་དགོངས་དོན": 1311,
      "▁༢༠༡༡": 1312,
      "ཁྲིམས་འཛིན་": 1313,
      "་བཙུགས": 1314,
      "་སྐྱེལ": 1315,
      "་གྲོང་ཁྱེར་": 1316,
      "བར་གྱི་": 1317,
      "གསུམ": 1318,
      "བསྟན་བཅོས": 1319,
      "་རྒྱུ་ཡིན་པ་རེད": 1320,
      "སྨན་ཁང": 1321,
      "རོགས་རམ": 1322,
      "ལ་ལྟ་བ་": 1323,
      "་ཡོངས་སུ": 1324,
      "བཅའ་ཁྲིམས": 1325,
      "་བཞིན་པའི་": 1326,
      "་རིན་ཆེན": 1327,
      "ཁྲོམ་རའི་": 1328,
      "ཁང": 1329,
      "ي": 1330,
      "ལས་ཁུངས་ཀྱི་": 1331,
      "་བྱེད་དགོས་པའི་": 1332,
      "ལྷ་སའི་": 1333,
      "་ཐ": 1334,
      "ཁྱབ་ཁང་གི་ཙུང་ལི": 1335,
      "་ཟླ": 1336,
      "་མིག": 1337,
      "▁2013": 1338,
      "▁ཡང་": 1339,
      "འགན་འཁུར་": 1340,
      "གཏམ་བཤད": 1341,
      "་འཛོམས": 1342,
      "ཤུགས་རྐྱེན": 1343,
      "་འབུལ": 1344,
      "་འདྲེན": 1345,
      "་སེར": 1346,
      "ཁེ་ལས་": 1347,
      "མཛེས་སྡུག་ལྡན་པ": 1348,
      "་བྱེད་དགོས་ཟེར": 1349,
      "་ལེགས་པར": 1350,
      "ཁྱིམ": 1351,
      "གལ་ཆེའི་": 1352,
      "་དེ་དག་": 1353,
      "ཀྲུང་གོའི་ཁྱད་ཆོ": 1354,
      "གསོ་སྦྱོང": 1355,
      "་འཐེན": 1356,
      "ཁུལ": 1357,
      "རྩོམ་ཡིག": 1358,
      "ལུས་རྩལ་": 1359,
      "་གསལ་པོ": 1360,
      "་སོགས་ཀྱིས་": 1361,
      "དཀའ་ངལ": 1362,
      "དངུལ": 1363,
      "སྤྱི་མཐུན་": 1364,
      "ཐོན་ཁུངས་": 1365,
      "་འདེབས": 1366,
      "མས": 1367,
      "སྙན་ཞུ": 1368,
      "་སྦྱོར": 1369,
      "ཐོག": 1370,
      "ཚེ": 1371,
      "ཟུར": 1372,
      "ཀྱིས་": 1373,
      "དར": 1374,
      "དེ་": 1375,
      "མི་དམངས་ལ་": 1376,
      "སྒོ": 1377,
      "▁2016": 1378,
      "བརྒྱུད་རིམ": 1379,
      "མུ་མཐུད་": 1380,
      "▁༼": 1381,
      "བགྲོད་ལམ": 1382,
      "མོ": 1383,
      "ལས་བྱེད་པའི་": 1384,
      "ལས་བྱེད་པ་དང་": 1385,
      "་ཡོང་བའི་": 1386,
      "ཁྱབ་ཁང་གི་": 1387,
      "ཤུགས་སྣོན་རྒྱག་པ": 1388,
      "སོང་": 1389,
      "་གྲགས": 1390,
      "བཅའ་ཁྲིམས་": 1391,
      "་ཆི": 1392,
      "་དེ་བས": 1393,
      "ཞི་ཅིན་ཕིང་གིས་": 1394,
      "Gadetdefinition": 1395,
      "་འདོན་སྤེལ": 1396,
      "ཞིང་ཆེན": 1397,
      "བླ་མ": 1398,
      "སྒྱུ་རྩལ་": 1399,
      "༢༡": 1400,
      "ཐོག་མའི་": 1401,
      "་ཞིག་": 1402,
      "ལྟ་སྐུལ": 1403,
      "་པེ": 1404,
      "ཕན་ཚུན་": 1405,
      "སྲུང་སྐྱོབ་": 1406,
      "་རྣམ": 1407,
      "་བདག": 1408,
      "་གསོ་སྐྱོང": 1409,
      "གནོད་འཚེ": 1410,
      "▁༢༠༡༤": 1411,
      "་ཚང་མ": 1412,
      "གཞི་ཁྱོན": 1413,
      "་ནན་པོ": 1414,
      "་ལུས": 1415,
      "▁ཤིན་ཧྭ་གསར་འགྱུ": 1416,
      "འགྲན་བསྡུར": 1417,
      "་བྱང": 1418,
      "སྒོར་དུང་ཕྱུར་": 1419,
      "གློག་བརྙན": 1420,
      "་ཅིང": 1421,
      "་བཏང་སྟེ": 1422,
      "ཁྲིམས": 1423,
      "×": 1424,
      "་གླིང་": 1425,
      "་ཨེ": 1426,
      "་མིང": 1427,
      "གྲོང་རྡལ": 1428,
      "དམིགས་ཡུལ": 1429,
      "གོ་གནས": 1430,
      "བཅོས་སྒྱུར་": 1431,
      "དམིགས་འབེན": 1432,
      "དབུ": 1433,
      "གས་": 1434,
      "རྩོམ་རིག་": 1435,
      "་བྱས་པས་": 1436,
      "གཞུང་ལམ་": 1437,
      "་རིན": 1438,
      "སྤྱི་ཁྱབ་": 1439,
      "བྱེད་སྒོ་སྤེལ": 1440,
      "་གཅིག་": 1441,
      "་དག་གིས་": 1442,
      "༢༣": 1443,
      "་གཞིར་བཟུང་": 1444,
      "དམངས་ཁྲོད་": 1445,
      "་བཅས་བྱས་ཏེ་": 1446,
      "ཀྲུའུ་ཞི་གཞོན་པ": 1447,
      "ཕྱིར": 1448,
      "༢༥༠": 1449,
      "རྒྱལ་པོ": 1450,
      "ཡན": 1451,
      "མིག": 1452,
      "་རྩོམ": 1453,
      "File": 1454,
      "དོན་དངོས": 1455,
      "བོད་དུ་": 1456,
      "་ཁྲོད་ཀྱི་": 1457,
      "་བཟུང": 1458,
      "བོན": 1459,
      "ཐད་": 1460,
      "་དབྱི": 1461,
      "་ཆེས": 1462,
      "ད་ལྟ་": 1463,
      "༢༢": 1464,
      "་ཧྲི": 1465,
      "་གཏོད": 1466,
      "་དཔེ": 1467,
      "་ཤང": 1468,
      "བོད་རིགས་": 1469,
      "▁ལྷག་པར་དུ་": 1470,
      "an": 1471,
      "རྒྱུད": 1472,
      "་གཏན་འཁེལ": 1473,
      "re": 1474,
      "སུ": 1475,
      "ནན་གྱིས་བསྟན་དོན": 1476,
      "ང་ཚོ་": 1477,
      "་གུ": 1478,
      "ཞལ": 1479,
      "བོད": 1480,
      "་མཐའ": 1481,
      "ཁང་པ": 1482,
      "༢༥": 1483,
      "་འབྲས": 1484,
      "་ཐུབ་པ་དང་": 1485,
      "སྣང་ཚུལ": 1486,
      "་སློབ་སྦྱོང": 1487,
      "སྒོ་འབྱེད": 1488,
      "་བྱ་རྒྱུ་རེད": 1489,
      "གསེར": 1490,
      "སྤུས་ཚད": 1491,
      "་ཚོའི་": 1492,
      "་ཡན": 1493,
      "་ཁག་": 1494,
      "་རྗེ": 1495,
      "ཚོགས": 1496,
      "ཆོས་ཉིད": 1497,
      "བཞུགས་མོལ་": 1498,
      "་དང་འབྲེལ་བའི་": 1499,
      "ཕུགས་འདུན": 1500,
      "མཐའ": 1501,
      "་ཁི": 1502,
      "བདེ་འཇགས": 1503,
      "ཁེ་ཕན": 1504,
      "་དཔལ": 1505,
      "་བཅད": 1506,
      "་བཅས་བྱས་ནས་": 1507,
      "་འོག་": 1508,
      "80": 1509,
      "སྒྱུར་བཅོས་": 1510,
      "་གནང་བ་དང་": 1511,
      "g": 1512,
      "་མ་ལག": 1513,
      "ཚོད་འཛིན": 1514,
      "ཁེ་ལས་ཀྱི་": 1515,
      "་བྱས་ཡོད་པ་རེད": 1516,
      "འབྱོར་གསལ": 1517,
      "་དྲན": 1518,
      "་འགོག": 1519,
      "་དང་བསྟུན་ནས་": 1520,
      "▁རྩོམ་པ་པོ": 1521,
      "་ཉི": 1522,
      "ཟིན་པ": 1523,
      "་བསྟན་པ": 1524,
      "་གང་ཞིག": 1525,
      "ཞེས་པ": 1526,
      "ུ": 1527,
      "དེབ": 1528,
      "་རྒན": 1529,
      "བློ་མཐུན་": 1530,
      "་མཚམས": 1531,
      "སྔོན་ལ་": 1532,
      "གོང་འཕེལ": 1533,
      "་རྒྱུག": 1534,
      "ར་གྱུར": 1535,
      "་མང་པོ་ཞིག": 1536,
      "▁དཔལ་འབྱོར་": 1537,
      "མི་དམངས་ཀྱིས་": 1538,
      "རླངས་འཁོར་": 1539,
      "ཐོན": 1540,
      "་ཇེ": 1541,
      "ཁྲིམས་ལུགས": 1542,
      "་སྐྱོང": 1543,
      "་འབྱོར": 1544,
      "་ཕྱིར་": 1545,
      "་རབ": 1546,
      "al": 1547,
      "ནོར་སྲིད་": 1548,
      "་མཐའ་གཅིག་ཏུ": 1549,
      "གཞུང་ལུགས": 1550,
      "་མངོན་གསལ་དོད་པོ": 1551,
      "ནུས་ཤུགས": 1552,
      "་ཆེ་ཤོས": 1553,
      "བའི་ཚེས": 1554,
      "ཐུན་མོང་ཐོག་": 1555,
      "་རིམ་བཞིན": 1556,
      "་དེར": 1557,
      "་བརྟན་པོ": 1558,
      "་འཛུགས་སྐྱོང": 1559,
      "▁དེ་བས་": 1560,
      "་གྲོང་ཁྱེར་གྱི་": 1561,
      "ལྔ": 1562,
      "ཞིབ་འཇུག་": 1563,
      "ཆེད་ལས་": 1564,
      "་བྱེད་མཁན་": 1565,
      "རྩ་འཛུགས་ཀྱི་": 1566,
      "ཟླ་བ": 1567,
      "་ལེགས་སྒྲིག": 1568,
      "་མདའ": 1569,
      "དཔལ་འབྱོར་གྱི་": 1570,
      "རྫོང་": 1571,
      "དངོས": 1572,
      "་བཞེས": 1573,
      "ནུས་ཤུགས་ཡོད་རྒུ": 1574,
      "་ཡེ": 1575,
      "མཐུན་སྒྲིལ་": 1576,
      "་རག": 1577,
      "Template": 1578,
      "རིག་པ": 1579,
      "དབང": 1580,
      "་རྫས": 1581,
      "དུས་སྐབས": 1582,
      "་མི་འདུག": 1583,
      "་ན་ཡང་": 1584,
      "སྤྱི": 1585,
      "་བྱེད་ཐུབ": 1586,
      "་སྐྱོན": 1587,
      "་གསར་གཏོད": 1588,
      "དེ་བས་": 1589,
      "གསོ་སྦྱོང་": 1590,
      "«": 1591,
      "རིག་དངོས་": 1592,
      "བཅོས་སྒྱུར": 1593,
      "་སློབ": 1594,
      "་གནང་བའི་": 1595,
      "▁39.7": 1596,
      "་བཙན": 1597,
      "་བློ": 1598,
      "ས་ནས་": 1599,
      "མཁས་པ": 1600,
      "ལས་རིགས་ཀྱི་": 1601,
      "▁གྲོང་ཁྱེར་དང་": 1602,
      "༣༠": 1603,
      "ཚ": 1604,
      "རྒྱུད་གཅིག་ལམ": 1605,
      "་སྨད": 1606,
      "་ཕུད": 1607,
      "་བརྒྱབ": 1608,
      "▁འདི": 1609,
      "བྱིས་པའི་": 1610,
      "ཡོད་པའི་": 1611,
      "སྐོར": 1612,
      "་ངང": 1613,
      "་ཡོད་དེ": 1614,
      "་རུང་": 1615,
      "་སྐྲུན": 1616,
      "་རྟེན": 1617,
      "ཚོད་ལྟའི་": 1618,
      "རླུང": 1619,
      "་ཐོག་མ": 1620,
      "སྐྱེ་ཁམས་ཁོར་ཡུག": 1621,
      "རྩ": 1622,
      "མ་དངུལ་": 1623,
      "▁སྤྱི་ལོ": 1624,
      "བརྟན་ལྷིང་": 1625,
      "་རླུང": 1626,
      "དབུལ་སྐྱོར": 1627,
      "the": 1628,
      "་ཨར": 1629,
      "མཛུབ་སྟོན": 1630,
      "་སྤྱད་དེ་": 1631,
      "་ཕྱིན": 1632,
      "འགྲེམས་སྟོན": 1633,
      "སྲིད་གཞུང་དང་": 1634,
      "འགན་ཁུར": 1635,
      "ལྟ་སྐུལ་": 1636,
      "་ཐི": 1637,
      "འགོ་ཁྲིད་": 1638,
      "་ཕ": 1639,
      "་མཛོད": 1640,
      "is": 1641,
      "བཤད་རྒྱུར": 1642,
      "འི་རིགས": 1643,
      "སྡེ་བ": 1644,
      "ཁམས": 1645,
      "ཇུས་གཞི": 1646,
      "ཁོང་གི་": 1647,
      "་རྙེད": 1648,
      "གྲོང་ཁྱེར་གྱི་": 1649,
      "་བཏང་ཡོད": 1650,
      "་ཟུར": 1651,
      "་ནེ": 1652,
      "རྩོམ་རིག": 1653,
      "ས་པའི་": 1654,
      "་ཚོར": 1655,
      "གྲོས་གཞི": 1656,
      "་ཡིན་ལ་": 1657,
      "་ངོ": 1658,
      "་སྟག": 1659,
      "་ཐོག་ནས་": 1660,
      "རྗེས": 1661,
      "་ཆག": 1662,
      "2014": 1663,
      "ལ་སྦྲེལ་ཡོད་": 1665,
      "ཀྲུང་ཧྭ་མི་རིགས": 1666,
      "གཞུང་ལམ": 1667,
      "་སྲུང་སྐྱོང": 1668,
      "་ཉི་མ": 1669,
      "▁སྣོད་བཅུད་": 1670,
      "རྩོམ་པ་པོ": 1671,
      "ཐུགས": 1672,
      "་ས་ཁུལ་གྱི་": 1673,
      "ལྷ་ས་གྲོང་ཁྱེར་": 1674,
      "རྩ་འཛུགས་": 1675,
      "f": 1676,
      "དགོན་པ": 1677,
      "མཚན": 1678,
      "་ནན": 1679,
      "ནང་བསྟན་": 1680,
      "▁༢༠༡༥": 1681,
      "སྐྱེལ་འདྲེན་": 1682,
      "ས་ཀྱི་སྤྱི་ཚོགས་": 1683,
      "བུད་མེད་": 1684,
      "་གསུམ་པ": 1685,
      "རྒྱལ་ཁབ་རིམ་པའི་": 1686,
      "ག་བསྟར་དོན་འཁྱོལ": 1687,
      "་དང་ཞིང་ཆེན་": 1688,
      "ཅི": 1689,
      "་ཐར": 1690,
      "་ནུས་པ": 1691,
      "་ཁྱབ": 1692,
      "་མེད་པ་དང་": 1693,
      "་ཏན་ཏིག": 1694,
      "་རིག": 1695,
      "གྲོགས་པོ": 1696,
      "ལས་གནས": 1697,
      "R": 1698,
      "གྲུབ་ཆ": 1699,
      "་མེད་པར་": 1700,
      "སློབ": 1701,
      "ཐོག་": 1702,
      "་ཙེ": 1703,
      "སྲོལ་ཡིག": 1704,
      "ཨུ་ཡོན་ལྷན་ཁང་": 1705,
      "་འབྱུང་བ": 1706,
      "མི་གྲངས": 1707,
      "སྒྲིག་ཆས": 1708,
      "སྡུག་བསྔལ": 1709,
      "་གཟིགས": 1710,
      "་སྙམ": 1711,
      "་དཔྱད": 1712,
      "་བྱེད་ཐབས": 1713,
      "་ཡར": 1714,
      "▁ཞི་ཅིན་ཕིང་གིས་": 1715,
      "་ཞིབ": 1716,
      "་ལིས": 1717,
      "་ཁག་གི་": 1718,
      "རྒྱུན་ལས་": 1719,
      "་དྲག་པོ": 1720,
      "ar": 1721,
      "▁དེར་": 1722,
      "སྒྲུབ": 1723,
      "སྣེ་ཁྲིད": 1724,
      "ཐེངས་འདིའི་": 1725,
      "་ཉུང": 1726,
      "▁ཡིན་ནའང་": 1727,
      "་ཝང": 1728,
      "་ལམ་": 1729,
      "་དངོས་འབེབས": 1730,
      "ཁྱོན་": 1731,
      "སློབ་ཁྲིད": 1732,
      "བདེ་ཐང་": 1733,
      "དམངས་འཚོ": 1734,
      "གྲོས་མཐུན": 1735,
      "འགལ་བ": 1736,
      "▁དེའི་ནང་": 1737,
      "་འཆར": 1738,
      "་མྱོང": 1739,
      "v": 1740,
      "་འབྲེལ": 1741,
      "བྱ་དགའ": 1742,
      "་པ་ནི་": 1743,
      "ཁྱད་ལྡན་": 1744,
      "་ལྡན་པ": 1745,
      "ཚད": 1746,
      "་བཏགས": 1747,
      "དཔེ་ཆ": 1748,
      "་སྲུང": 1749,
      "་ཕྱག": 1750,
      "་ཁ་ཤས": 1751,
      "ཆ་འཕྲིན": 1752,
      "0%": 1753,
      "བུ་མོ": 1754,
      "་རང་གི་": 1755,
      "གདེང་འཇོག": 1756,
      "ནང་གི་": 1757,
      "་ཚོགས་འདུ": 1758,
      "གསར་གཏོད": 1759,
      "སྐུལ་འདེད་གཏོང": 1760,
      "བཅོས་སྐྱོང": 1761,
      "ལྷ་ས་གྲོང་ཁྱེར": 1762,
      "ཆོས་ལུགས": 1763,
      "ཡོད་པ": 1764,
      "ལྟ་ཚུལ": 1765,
      "ཤར": 1766,
      "འཕེལ་རྒྱས་སུ": 1767,
      "ར་བརྟེན་ནས་": 1768,
      "རིགས་པའི་གཞུང་ལུ": 1769,
      "་ཡིན་ནོ": 1770,
      "ལོ་ནས་བཟུང་": 1771,
      "སྒྲིག་སྲོལ": 1772,
      "ལས་ཞུགས": 1773,
      "་མོའི་": 1774,
      "ལན": 1775,
      "ལས་ཁུངས་ཀྱིས་": 1776,
      "ཟི་ལིང་གྲོང་ཁྱེར": 1777,
      "་གྲགས་ཅན": 1778,
      "སྡེ་ཁག་གིས་": 1779,
      "དུས་དེབ": 1780,
      "ཐོན་ལས་འཕེལ་རྒྱས": 1781,
      "ལི": 1783,
      "་ཐོག་མར": 1784,
      "འཕེལ་རྒྱས་གཏོང་བ": 1785,
      "of": 1786,
      "་འགྲེལ": 1787,
      "རིག་གཞུང་": 1788,
      "ཟིན་ཡོད": 1789,
      "གདམ": 1790,
      "དབུལ་ཕོངས་": 1791,
      "དཔལ་འབྱོར": 1792,
      "ད་ལྟའི་": 1793,
      "ཁྲིད་སྟོན": 1794,
      "་ཕན": 1795,
      "ལས་རིགས་": 1796,
      "▁ཚེས་": 1797,
      "གཞི": 1798,
      "་སྐྱ": 1799,
      "ཉམས": 1800,
      "་མཐོ": 1801,
      "previous": 1802,
      "ཐུན་མོང་མ་ཡིན་པ": 1803,
      "་མཱ": 1804,
      "་ཆེན་པོའི་": 1805,
      "སྒྲིག་འཛུགས": 1806,
      "ཡིས་": 1807,
      "ཨ་རིའི་": 1808,
      "་གནང་ཡོད": 1809,
      "་འདིར": 1810,
      "་བློ་བཟང": 1811,
      "ཙུང་ལི": 1812,
      "་ཉོ": 1813,
      "ཏང": 1814,
      "་ཐེངས": 1815,
      "་འགྲུབ": 1816,
      "འགན": 1817,
      "རྩོམ": 1818,
      "ས་ཀྱང་": 1819,
      "རྒྱལ་ཁབ་གཉིས་ཀྱི": 1820,
      "next": 1821,
      "་རེས": 1822,
      "དངོས་སུ་": 1823,
      "O": 1824,
      "་བྱིན": 1825,
      "▁གཉིས": 1826,
      "དྲ་བ": 1827,
      "་གཏམ": 1828,
      "་ཡེ་ཤེས": 1829,
      "་ལེགས་བཅོས": 1830,
      "་ཕྱོགས་ཀྱི་": 1831,
      "ཏང་ཀྲུང་དབྱང་གི་": 1832,
      "འཁོར": 1833,
      "་མང་བོ": 1834,
      "་བཞིའི་": 1835,
      "ཁོའི་": 1836,
      "ཤིང": 1837,
      "བརྟག་དཔྱད": 1838,
      "འི་ཁྲོད་": 1839,
      "་གསེར": 1840,
      "་རྒོད": 1841,
      "ཡོང་ཁུངས": 1842,
      "སྒྲིག་ལམ": 1843,
      "་ཅན་དང་": 1844,
      "—": 1845,
      "་ཆུང་བ": 1846,
      "འཚམས་འདྲི": 1847,
      "་ཟེར་བ": 1848,
      "་རིགས་": 1849,
      "ཡིད": 1850,
      "དོན་འཁྱོལ": 1851,
      "དཔེ་སྟོན་": 1852,
      "་ལ་སོགས་པ": 1853,
      "་དང་པོའི་": 1854,
      "་ཆེ་གྲས": 1855,
      "ཡིག": 1856,
      "དོན་དག": 1857,
      "ལྗོངས་ཀྱི་": 1858,
      "་ཤུགས་ཆེན": 1859,
      "གྱོད་གཞི": 1860,
      "ཡོན་ཏན": 1861,
      "་བྱས་ན": 1862,
      "་ཐོས": 1863,
      "ed": 1864,
      "་ལངས": 1865,
      "le": 1866,
      "འཛིན་གྲྭ": 1867,
      "་ཕུལ": 1868,
      "བླ": 1869,
      "ཕྱོགས་ཀྱིས་": 1870,
      "ཤང": 1871,
      "སྤྱི་ལོ": 1872,
      "་བླ་མ": 1873,
      "་གྲོང་ཁྱེར": 1874,
      "ཁས་ལེན": 1875,
      "ཁ་པར": 1876,
      "་ཚབས་ཆེན": 1877,
      "གོ": 1878,
      "སྲིད་གྲོས་": 1879,
      "སྡེ་ཚན": 1880,
      "་འོད": 1881,
      "ལྕགས": 1882,
      "་པ་ཞིག": 1883,
      "ལོ་ནས་": 1884,
      "▁འབྲེལ་ཡོད་": 1885,
      "་འཐུང": 1886,
      "སྲུང་སྐྱོང་གི་": 1887,
      "བརྡ": 1888,
      "པའི་ཚེས་": 1889,
      "འགྱུར": 1890,
      "སོགས": 1891,
      "སྦྱོང་བརྡར": 1892,
      "ཁྱིམ་ཚང་གི་": 1893,
      "་སྟེང་": 1894,
      "و": 1895,
      "་བཙུགས་ནས་": 1896,
      "་མཐུན": 1897,
      "ཀྲུང་ཧྭ་མི་དམངས་": 1898,
      "་སྤྱི": 1899,
      "རྟེན": 1900,
      "་འགྲོ་བ": 1901,
      "ས་རང་སྐྱོང་ཁུལ་": 1902,
      "ཉི་མ": 1903,
      "་བསྐྱེད": 1904,
      "▁ཆོས": 1905,
      "▁རང་རྒྱལ་གྱི་": 1906,
      "བཅོ་བརྒྱད་པ": 1907,
      "་ལོ་": 1908,
      "90": 1909,
      "གྲོང": 1910,
      "ཟིན་པ་དང་": 1911,
      "་ཧྭ": 1912,
      "▁ད་ཆ་": 1913,
      "ཕྱི་འབྲེལ་": 1914,
      "་དཀའ": 1915,
      "འདུ་འགོད": 1916,
      "གངས": 1917,
      "སྟེགས་བུ": 1918,
      "wikibooks": 1919,
      "ཡང་བསྐྱར་": 1920,
      "ནད་པ": 1921,
      "བོད་ལུགས་གསོ་རིག": 1922,
      "ཟེར": 1923,
      "▁རྒྱལ་སྤྱིའི་": 1924,
      "བཀོད་པ": 1925,
      "་ལམ་ལུགས": 1926,
      "་ཐུང": 1927,
      "་ལྡན་": 1928,
      "་ཕབ": 1929,
      "ང་ཚོར་": 1930,
      "ྤྱི་ཁྱབ་ཧྲུའུ་ཅི": 1931,
      "ཚོད་ལྟ": 1932,
      "་ཟས": 1933,
      "རྩ་བ": 1934,
      "ས་གནས་དེ་གའི་": 1935,
      "་མུ་མཐུད": 1936,
      "མཐུན་སྒྲིལ": 1937,
      "▁རང": 1938,
      "་ཚུགས": 1939,
      "་བཏང་ནས": 1940,
      "་དང་དེའི་": 1941,
      "དཔེ་སྐྲུན་ཁང་": 1942,
      "་རབས": 1943,
      "ར་སྐུལ་འདེད་གཏོང": 1944,
      "ཡ": 1945,
      "འཁྲབ་སྟོན": 1946,
      "་ཚར": 1947,
      "་སློབ་སྦྱོང་དང་": 1948,
      "སྒུལ་ཤུགས": 1949,
      "སློབ་གསོ་དང་": 1950,
      "ཁྲོམ་ར": 1951,
      "མིག་སྔར་": 1952,
      "་བབས": 1953,
      "སློབ་སྦྱོང་དང་": 1954,
      "་ཡུས": 1955,
      "ྱ": 1956,
      "ཆེན་རྒྱུན་ལས་": 1957,
      "ས་ཀྱི་": 1958,
      "སྔར་བཞིན་": 1959,
      "་འཛིན་པ": 1960,
      "སེམས་པ": 1961,
      "་སྟོད": 1962,
      "་གཞན་དག": 1963,
      "་ཆེན་མོའི་": 1964,
      "གནམ་གཤིས་": 1965,
      "་བྱ་རྒྱུ་དང་": 1966,
      "གྲོང་རྡལ་གྱི་": 1967,
      "བཏོན་པའི་": 1968,
      "་རིགས་ཀྱི་": 1969,
      "་སྔོན": 1970,
      "ཆོ་ག": 1971,
      "་ལྷག": 1972,
      "སྲོལ་རྒྱུན་གྱི་": 1973,
      "་འདེམས": 1974,
      "་འགོ": 1975,
      "་དེ་འདྲ": 1976,
      "་དངུལ": 1977,
      "ཞིས་ཅིན་ཕིང་གིས་": 1978,
      "་བསྒྲིགས": 1979,
      "གནས་ཚུལ་": 1980,
      "བསམ་པའི་": 1981,
      "་གཅིག་ཏུ": 1982,
      "U": 1983,
      "་ཚང་མར་": 1984,
      "་ཕུ": 1985,
      "སློབ་ཆེན": 1986,
      "རིག་རྩལ་": 1987,
      "ཀྲུང་གུང་": 1988,
      "་ཨན": 1989,
      "ལས་ཞུགས་": 1990,
      "འཇིག་རྟེན": 1991,
      "་ཡིན་ཏེ": 1992,
      "ཉོ་ཚོང་": 1993,
      "ཆ་སྙོམས་": 1994,
      "་མཐོར་འདེགས": 1995,
      "}": 1996,
      "་གོང": 1997,
      "ཉེ་བའི་ལོ་ཤས་རིང": 1998,
      "༢༤": 1999,
      "་པ་མ་ཟད་": 2000,
      "▁དེས་ན་": 2001,
      "་ཞིག་ལ་": 2002,
      "ནོར": 2003,
      "ཊ": 2004,
      "གང": 2005,
      "་ངོ་མ": 2006,
      "་བཟོས": 2007,
      "དཔྱད་ཞིབ": 2008,
      "་བརྒྱུད་ནས་": 2009,
      "འགྲོ་འོང": 2010,
      "V": 2011,
      "ཚོགས་ཆེན": 2012,
      "ཐོག་མཐའ་བར་གསུམ": 2013,
      "སྟབས་བདེ": 2014,
      "་ལ་ཞུགས": 2015,
      "དངུལ་རྩའི་": 2016,
      "་རྒྱལ་པོ": 2017,
      "བཟོ་སྐྲུན": 2018,
      "་སྟོན་པ": 2019,
      "ཁྲི": 2020,
      "་བྱེད་སྟངས": 2021,
      "འི་སྟེང་": 2022,
      "་བཏང་བ་དང་": 2023,
      "་ལ་མཇལ་འཕྲད་གནང་": 2024,
      "་དགོས་ཟེར": 2025,
      "སྤྱོད་ཚུལ": 2026,
      "་ཞན": 2027,
      "་ལྕགས": 2028,
      "▁ཕྱི": 2029,
      "་ཏོ": 2030,
      "རྒྱལ་ཁབ་ཀྱིས་": 2031,
      "རྐང": 2032,
      "མཚན་ཉིད": 2033,
      "་ཡང་དག": 2034,
      "་ཁྱོན་ཡོངས་ནས": 2035,
      "བོད་སྐྱོར་": 2036,
      "་སྟོབས": 2037,
      "ལོ་ངོ": 2038,
      "་ཀོ": 2039,
      "35": 2040,
      "་ཡག": 2041,
      "ལས་": 2042,
      "་ཐུག": 2043,
      "་ཕུན་སུམ་ཚོགས་པ": 2044,
      "གློག་བརྙན་": 2045,
      "300": 2046,
      "སྤྱི་ཚོགས": 2047,
      "་ཁུག": 2048,
      "་ཅེས": 2049,
      "དུས་རིམ": 2050,
      "གཏན་འཁེལ": 2051,
      "and": 2052,
      "འབྲེལ་འདྲིས": 2053,
      "་བླ": 2054,
      "་གཏོར": 2055,
      "འཕེལ་རིམ": 2056,
      "སྡེ་ཚན་གྱིས་": 2057,
      "▁སྤྱིར་": 2058,
      "’": 2059,
      "་བྱས་ན་": 2060,
      "ཡང": 2061,
      "200": 2062,
      "་ཚོར་": 2063,
      "བརྟག་ཞིབ": 2064,
      ">>": 2065,
      "ཞིང་ཆེན་རིམ་པའི་": 2066,
      "ཁ་གསབ": 2067,
      "་གླིང་གི་": 2068,
      "རྒྱན": 2069,
      "་གཏེར": 2070,
      "་ཀྲི": 2071,
      "གྲོས་ཚོགས": 2072,
      "ཀྲུང་གོར་": 2073,
      "གནམ་གྲུ": 2074,
      "་ཅུང་ཟད": 2075,
      "་རོལ": 2076,
      "་ལྔའི་": 2077,
      "རྒྱབ": 2078,
      "་བྱས་པ་བརྒྱུད་": 2079,
      "་ཤུལ": 2080,
      "སྤྱི་པའི་": 2081,
      "ཕན་ནུས": 2082,
      "ལམ་སྲོལ": 2083,
      "་སྦྱོང": 2084,
      "་ཧན": 2085,
      "་ཆེན་": 2086,
      "་སར": 2087,
      "་བྱས་རྗེས་": 2088,
      "་བ་རེད": 2089,
      "ཉིན་མོ": 2090,
      "་ཞུགས": 2091,
      "སྔ་རྗེས་སུ་": 2092,
      "ཕ་ཡུལ": 2093,
      "་འབྲུག": 2094,
      "ལྟ་ཞིབ་": 2095,
      "ཐད་ནས་": 2096,
      "<<": 2097,
      "གླེང་སྟེགས": 2098,
      "་འདིས་": 2099,
      "་པ་དང": 2100,
      "2000": 2101,
      "་ལུ": 2102,
      "་དམག": 2103,
      "་རྒྱུ་ཡིན": 2104,
      "li": 2105,
      "▁དང་པོ": 2106,
      "་བོན": 2107,
      "་བཟའ": 2108,
      "་ལ་བརྟེན་ནས": 2109,
      "་ནང་དུ": 2110,
      "ཐོག་ནས་": 2111,
      "ཚོང": 2112,
      "▁གསར་འགྱུར་": 2113,
      "་བཏབ": 2114,
      "་གྲོང་རྡལ": 2115,
      "་དྲག": 2116,
      "རྒྱུན་ཆད་མེད་པར་": 2117,
      "མི་སྣའི་": 2118,
      "་ཡི་གེ": 2119,
      "་འཐུས་སྒོ་ཚང་དུ": 2120,
      "་དམར་པོ": 2121,
      "▁༽": 2122,
      "་ཕྱེ": 2123,
      "གསར་འགྱུར": 2124,
      "གསུང་བཤད་གལ་ཆེན": 2125,
      "▁༢༠༠༩": 2126,
      "སྡེ་ཁག": 2127,
      "ལྷ་སར་": 2128,
      "་ཚེ་རིང": 2129,
      "ལེགས་ཆ": 2130,
      "་དག་ལ་": 2131,
      "་ཀྱི་ཡོད": 2132,
      "མ་འཇོག": 2133,
      "་ཕྱི": 2134,
      "་གྲོགས": 2135,
      "་ཞིག་ཡིན་པ་དང་": 2136,
      "▁ག": 2137,
      "▁རྒྱ": 2138,
      "ཧ": 2139,
      "གྲོང་མི": 2140,
      "▁ཡང་ན་": 2141,
      "བཙན": 2142,
      "རྒྱལ": 2143,
      "་དེ་ཡིན": 2144,
      "ཐུན་མོང་": 2145,
      "la": 2146,
      "་བསྟན་འཛིན": 2147,
      "ཞིང་སྡེའི་": 2148,
      "་ལ་རྒྱབ་སྐྱོར": 2149,
      "ཁག": 2150,
      "་ཁམས": 2151,
      "་ཟད": 2152,
      "་དེབ": 2153,
      "”“": 2154,
      "་གྱུར": 2155,
      "་ཕོག": 2156,
      "ས་ཚིགས": 2157,
      "སྒྱུར་བཅོས": 2158,
      "་ཐོབ་ཡོད": 2159,
      "བྱེད": 2160,
      "500": 2161,
      "▁ལོ་": 2162,
      "་འདས": 2163,
      "་ཚོད": 2164,
      "་བྱུང་ནས་": 2165,
      "▁2014": 2166,
      "རེ": 2167,
      "ཁྲོད་": 2168,
      "སྔོན་ཐོན་": 2169,
      "་ཞེས་བྱ་བ": 2170,
      "་ཞལ": 2171,
      "གཙང": 2172,
      "འགན་འཁུར་བ": 2173,
      "ལུང": 2174,
      "▁ངེས་པར་དུ་": 2175,
      "་གསུམ་དང་": 2176,
      "ཟས": 2177,
      "ཆབ་སྲིད་ཅུའུ་ཡི་": 2178,
      "ཁྱབ་ཁོངས་ཀྱི་": 2179,
      "་བྱ་རྒྱུ་དེ་": 2180,
      "་གྲོལ": 2181,
      "གྲོང་མིའི་": 2182,
      "་འགོད": 2183,
      "བརྒྱ་ཆའི": 2184,
      "ཁྱབ": 2185,
      "ཡོང་སྒོ": 2186,
      "༢༧": 2187,
      "འོ་": 2188,
      "སྐབས་སུ་": 2189,
      "འགྲོ": 2190,
      "ཆོས་ལུགས་ཀྱི་": 2191,
      "་མདོག": 2192,
      "སྔ": 2193,
      "་བྱས་པས": 2194,
      "་གྲོས་ཚོགས་ཐེངས": 2195,
      "་ཆགས་པ": 2196,
      "on": 2197,
      "རྒྱུན་མཐུད་": 2198,
      "་མ་ཟད": 2199,
      "ངོ": 2200,
      "རུ": 2201,
      "་ཤོས": 2203,
      "་ཟམ་མི་ཆད་པར": 2204,
      "པོ": 2205,
      "ནང་དུ": 2206,
      "ཐད་ཀར་": 2207,
      "ཅུའུ": 2208,
      "འཐབ་ཕྱོགས་": 2209,
      "▁ཉེ་ཆར་": 2210,
      "དགེ་མཚན": 2211,
      "ད་ཆ་": 2212,
      "སྨན་བཅོས": 2213,
      "བྱས་རྗེས": 2214,
      "་ཡང་ཡང": 2215,
      "་བཏང་": 2216,
      "་ཕྱོགས་ཡོངས་ནས": 2217,
      "་ལོང": 2218,
      "བོད་སྐད": 2219,
      "དུས་བབ": 2220,
      "▁ཏང་གི་ཚོགས་ཆེན་": 2221,
      "་ལིན": 2222,
      "ཟླ་དགུ་བ་": 2223,
      "ཨུ་ཡོན་ལྷན་ཁང": 2224,
      "to": 2225,
      "རྟོག་ཞིབ": 2226,
      "་བྱ་ཡུལ": 2227,
      "ཐོབ་ཐང": 2228,
      "་སྒྲོན": 2229,
      "】": 2230,
      "སྒྱུ་རྩལ་གྱི་": 2231,
      "་གཙང": 2232,
      "་ཞིག་ཡིན་ལ": 2233,
      "སློབ་སྦྱོང་": 2234,
      "▁ངའི་": 2235,
      "འཚོ་བར་": 2236,
      "་སྒྲིག་འཛུགས": 2237,
      "་མཛེས": 2238,
      "ཐོན་རྫས་": 2239,
      "གྲོས་བསྡུར": 2240,
      "སྐབས་བཅུ་གཉིས་པ": 2241,
      "བྱ་གཞག": 2242,
      "་འཕར": 2243,
      "▁དེ་ལ་": 2244,
      "་ལ་སོགས་པའི་": 2245,
      "་འདུ": 2246,
      "་མཁོ་འདོན": 2247,
      "་བྲག": 2248,
      "、": 2249,
      "ཀྲུང་གོ་གུང་ཁྲན་": 2250,
      "་ངོ་སྤྲོད": 2251,
      "དོན་སྙིང་གལ་ཆེན": 2252,
      "འཐུས་མི་ཚོགས་ཆེན": 2253,
      "ཏང་ཡོན་ལས་བྱེད་པ": 2254,
      "་བསྒྲགས": 2255,
      "▁$": 2256,
      "་དགེ": 2257,
      "གསུང": 2258,
      "སྟོང": 2259,
      "སློབ་དཔོན": 2260,
      "སྒྲིག་བཀོད": 2261,
      "ཤུགས་སྣོན་བརྒྱབ": 2262,
      "་དར་སྤེལ": 2263,
      "་གསུང": 2264,
      "རྗེས་སུ་": 2265,
      "ྲ": 2266,
      "་སྒྲོལ་མ": 2267,
      "རིན་གོང": 2268,
      "དྲ་རྒྱའི་": 2269,
      "་གཉིས་པའི": 2270,
      "མཉམ": 2271,
      "▁བོད་ལྗོངས་ཀྱི་": 2272,
      "ཟླ་བརྒྱད་པ་": 2273,
      "གྲུབ་མཐའ": 2274,
      "སྔོན": 2275,
      "ཟླ་བཞི་བ་": 2276,
      "་འགྲན་བསྡུར": 2277,
      "་རྣམ་པ": 2278,
      "སྒོར་": 2279,
      "ཐང": 2280,
      "སྒོར": 2281,
      "གསོ་རིག་": 2282,
      "ཆུ་བེད་": 2283,
      "་བསྟེན": 2284,
      "འི་ནང": 2285,
      "གསར་སྤེལ": 2286,
      "▁སྐབས་དེར་": 2287,
      "བཅར་འདྲི": 2288,
      "རྟགས": 2289,
      "་ཤང་": 2290,
      "ས་གནས་ཀྱི་": 2291,
      "དཀའ་ངལ་ཡོད་པའི་": 2292,
      "Cateory": 2293,
      "་བྱེད་བཞིན་པ": 2294,
      "ས་གནས": 2295,
      "་ཆེན་པོས་": 2296,
      "་ཧེ": 2297,
      "རྨི་ལམ": 2298,
      "་བསོད་ནམས": 2299,
      "་མཉམ་དུ": 2300,
      "ཐང་ག": 2301,
      "གྲོས་ཆོད": 2302,
      "གནད": 2303,
      "ང་ལ་": 2304,
      "ལེ་ཚན": 2305,
      "▁ཡོངས་རྫོགས་": 2306,
      "▁ཉེ་ཆར": 2307,
      "་འཚོལ": 2308,
      "བུ་ཕྲུག": 2309,
      "སྟེང་": 2310,
      "ཕྱི་ནང་གི་": 2311,
      "་དུ་གྱུར": 2312,
      "36": 2313,
      "་སྣེ": 2314,
      "གཙོ་གནད": 2315,
      "་ཟླ་བ": 2316,
      "མཐོང": 2317,
      "▁2012": 2318,
      "་དམ་པ": 2319,
      "་ལ་མི": 2320,
      "ལས་དོན་སྐོར་གྱི་": 2321,
      "རིག་གནས་དང་": 2322,
      "ཉིན་རེའི་ཚགས་པར": 2323,
      "་ཆུང་": 2324,
      "ཡར་རྒྱས": 2325,
      "་ཐད་ནས་": 2326,
      "་དེས": 2327,
      "ལྟ་སྐུལ་དོ་དམ": 2328,
      "སློབ་གླིང་གི་": 2329,
      "་ལ་སྲུང་སྐྱོབ": 2330,
      "▁རྒྱ་ཆེའི་": 2331,
      "གནས་ལུགས": 2332,
      "་རིག་པའི་": 2333,
      "ས་མཐོའི་": 2334,
      "་ཧྥུའུ": 2335,
      "རང་ཉིད་": 2336,
      "་གཡང": 2337,
      "མིའི་": 2338,
      "་བརྒྱབ་ནས་": 2339,
      "གོང": 2340,
      "་རྩི": 2341,
      "ཁྲིམས་སྐྱོང་": 2343,
      "ཟླ་བདུན་པ་": 2344,
      "་འཚོ": 2345,
      "་གཏིང་ཟབ་ཏུ་སྤེལ": 2346,
      "བུད་མེད": 2347,
      "་གང་མང": 2348,
      "་སྐྱེད་སྲིང": 2349,
      "་སྦྱར": 2350,
      "ཟླ་དྲུག་པ་": 2351,
      "་སྟབས": 2352,
      "ཟླ་བཅུ་གཅིག་པ་": 2353,
      "་ཁྱིམ": 2354,
      "སྔར་བས་": 2355,
      "ར་འགྱུར": 2356,
      "བྱེད་སྒོ་སྤེལ་བ": 2357,
      "དུས་ཚིགས": 2358,
      "▁དེ་ལྟར": 2359,
      "▁2017": 2360,
      "་སྒོར་ཁྲི་": 2361,
      "་འགའ་ཞིག": 2362,
      "སྡོད་ཁང": 2363,
      "་བཞིན་དུ": 2364,
      "ལེགས་སྐྱེས": 2365,
      "་བཙུགས་པ": 2366,
      "གྲོན་དངུལ": 2367,
      "་ནུབ": 2368,
      "་སྦྱིན": 2369,
      "་ཁུངས": 2370,
      "ཁྲོད་དུ་": 2371,
      "མིའི་རིགས་ཀྱི་": 2372,
      "གཏེར": 2373,
      "དོན་ཚན": 2374,
      "རང་རང་གི་": 2375,
      "རྒྱུན་འཛིན": 2376,
      "ཁོངས་མི": 2377,
      "ཏང་ཀྲུང་དབྱང་དང་": 2378,
      "་སྡོད": 2379,
      "་འདྲི": 2380,
      "བགྲོ་གླེང": 2381,
      "ཨ་མ": 2382,
      "‘": 2383,
      "་གྱི་དགོངས་དོན": 2384,
      "་ཉེ": 2385,
      "་གྲགས་པ": 2386,
      "་བྲལ": 2387,
      "བྲག": 2388,
      "་ཟེར་": 2389,
      "▁གཉིས་པ": 2390,
      "མི་སྒེར་གྱི་": 2391,
      "ལས་སྟེགས": 2392,
      "ཡུལ་སྐོར་བ": 2393,
      "༢༩": 2394,
      "་སངས་རྒྱས": 2395,
      "་ཕྲུག": 2396,
      "འགུལ་སྐྱོད": 2397,
      "་སྒོར་": 2398,
      "་སྔོན་འགོག": 2399,
      "དེ་ནི་": 2400,
      "་བྱུང་ཞིང་": 2401,
      "འཕར": 2402,
      "ཁོ": 2403,
      "▁ཝང": 2404,
      "ཐོན་སྐྱེད": 2405,
      "་ཞའོ": 2406,
      "་གོང་": 2407,
      "རྐྱེན": 2408,
      "ཧྲུའུ་ཅི": 2409,
      "ལ་ཤུགས་སྣོན་རྒྱག": 2410,
      "འགྱུར་བ": 2411,
      "▁ཚོགས་འདུའི་ཐོག་": 2412,
      "སྣང་བ": 2413,
      "་ཞིབ་འཇུག": 2414,
      "སྐྱེ་བོ": 2415,
      "་གསུམ་པའི": 2417,
      "རྒྱང": 2418,
      "མཛེས་ལྗོངས་ཁུལ": 2419,
      "དུད་ཚང་": 2420,
      "གསར་འགོད་པར་": 2421,
      "་ས་ཁུལ": 2422,
      "རིག་གནས་སྒྱུ་རྩལ": 2423,
      "བཏང་ནས་": 2424,
      "ཁོས་": 2425,
      "འི་གནས་ཚུལ་ཡིན་པ": 2426,
      "་ཞིག་ཡིན་པ": 2427,
      "་བཅུ་གཉིས": 2428,
      "འཕར་བ": 2429,
      "དོན་སྙིང": 2430,
      "འོས་འགན": 2431,
      "2017": 2432,
      "སྲིད་གཞུང": 2433,
      "ཚོར་བ": 2434,
      "་བྱེད་ཤུགས": 2435,
      "་རིག་པ": 2436,
      "དཔེ་དེབ": 2437,
      "་བརྗོད་པ": 2438,
      "45": 2439,
      "་བཅས་རེད": 2440,
      "་སྒམ": 2441,
      "▁སྤྱི་ཚོགས་ཀྱི་": 2442,
      "གདོང": 2443,
      "མ་དངུལ་སྒོར་ཁྲི་": 2444,
      "་ཚང་མས་": 2445,
      "▁མཚོ་སྔོན་གྱི་": 2446,
      "transclusion": 2447,
      "་འབྱེད": 2448,
      "་པར་མ་ཟད་": 2449,
      "སློབ་མ་": 2450,
      "ས་བོན": 2451,
      "སོ་སོར་": 2452,
      "་གཉིས་ལ་": 2453,
      "་ཡུན": 2454,
      "ཞིབ་བཤེར་": 2455,
      "སློབ་ཚན": 2456,
      "་བྱ་རྒྱུ་ཡིན": 2457,
      "རྒྱ་ཁྱོན": 2458,
      "དཀར་ཆག": 2459,
      "་ཁོག": 2460,
      "▁ལི": 2461,
      "གྲོང་ཚོའི་": 2462,
      "ལྟ་ཞིབ": 2463,
      "▁འ": 2464,
      "+": 2465,
      "དམངས་གཙོའི་": 2466,
      "་ནག་པོ": 2467,
      "སྐད་ཡིག": 2468,
      "ན་གཞོན་": 2469,
      "▁རྒྱལ་ཡོངས་ཀྱི་": 2470,
      "་ཙི": 2471,
      "▁༄༅་": 2472,
      "་བསྐོར": 2473,
      "སྡོད་ཁང་": 2474,
      "་དཀའ་བ": 2475,
      "་བརྒྱུད་དེ་": 2476,
      "2013": 2477,
      "་ཆ་ཚང": 2478,
      "གཅིག་གྱུར": 2479,
      "རྒྱུ་མཚན": 2480,
      "གྲ་སྒྲིག": 2481,
      "བློ་མཐུན": 2482,
      "ཞི": 2483,
      "འདེགས་སྐྱོར": 2484,
      "དཀའ་ཁག": 2485,
      "་མི་ཐུབ": 2486,
      "་མི་སྲིད": 2487,
      "རྒྱལ་གཅེས་": 2488,
      "བོད་ལ་": 2489,
      "བརྗོད་བྱ": 2490,
      "་ཚོགས་པའི་": 2491,
      "་མཚོན་ཡོད": 2492,
      "་ཉན": 2493,
      "མཛུབ་ཁྲིད": 2494,
      "་མངོན་པར": 2495,
      "▁རོགས་རམ་": 2496,
      "འགོ": 2497,
      "ལས་གྲྭ": 2498,
      "་སྙིང": 2499,
      "་གསར་པའི་": 2500,
      "ལག་ཁྱེར": 2501,
      "་གཙོ": 2502,
      "དམག་དཔུང": 2503,
      "་ཕྱོགས་ཀྱིས་": 2504,
      "▁སྤེལ་དུས": 2505,
      "དཔུང་སྡེ": 2506,
      "ཅེས་པའི་": 2507,
      "་སྤྱད": 2508,
      "ཡིད་རྟོན་": 2509,
      "▁གསུམ": 2510,
      "དུད་ཚང": 2511,
      "་བྱས་པ་མ་ཟད": 2512,
      "་རྒྱལ་ཁབ་ཀྱི་": 2513,
      "་སོང་བ": 2514,
      "▁ད་ལོའི་": 2515,
      "བོད་སྐྱོར་ལས་དོན": 2516,
      "Usertalk": 2517,
      "་སྙན": 2518,
      "་ཤོད": 2519,
      "་ཡོད་ཀྱང་": 2520,
      "ར་མ": 2521,
      "བྱེད་སྟངས": 2522,
      "རྒྱུན": 2523,
      "་བཟོ་བ": 2524,
      "གླུ": 2525,
      "་བྱེད་ཅིང་": 2526,
      "ཁ་དོག": 2527,
      "་ཆེ་རུ་གཏོང་བ": 2528,
      "་ལོན": 2529,
      "▁ཡང": 2530,
      "ikiquote": 2531,
      "ལྟེ་བའི་": 2532,
      "་སླ": 2533,
      "་འགན་ལེན": 2534,
      "སྤེལ": 2535,
      "བྱེད་ནུས": 2536,
      "འཕེལ་རྒྱས་འགྲོ": 2537,
      "་འདི་དག": 2538,
      "དགུན": 2539,
      "▁དཔེར་ན་": 2540,
      "ལྷོ": 2541,
      "་རྐང": 2542,
      "དགེ་རྒན་གྱི་": 2543,
      "རིགས་གཅིག་མཁས་ཅན": 2544,
      "བདག": 2545,
      "་མཚོན་པའི་": 2546,
      "༢༨": 2547,
      "བདེ་སྐྱིད": 2548,
      "བཞི": 2549,
      "་ཐེངས་དང་པོ": 2550,
      "་མི་": 2551,
      "མི་རིགས": 2552,
      "▁གང": 2553,
      "ཁྲག": 2554,
      "་རྒྱ་ཆེར": 2556,
      "དགོངས་དོན": 2557,
      "་ཆེ་ཆུང": 2558,
      "་དང་འབྲེལ་": 2559,
      "་ཤིག་ཡིན": 2560,
      "་ཡོངས་ལ་": 2561,
      "ch": 2562,
      "དྲ་རྒྱ": 2563,
      "གསར་གཏོད་": 2564,
      "་དབྱང": 2565,
      "ཁོང": 2566,
      "པེ་ཅིང་": 2567,
      "རང་ཉིད": 2568,
      "ཚན་པ": 2569,
      "སྐོར་གྱི་": 2570,
      "་ལྡོག": 2571,
      "་སྔ": 2572,
      "སློབ་ཁྲིད་": 2573,
      "་འདི་ཉིད་": 2574,
      "གཞན": 2575,
      "འབྲེལ་མཐུད": 2576,
      "གོམས་གཤིས": 2577,
      "་བྱ་ཆེད": 2578,
      "ཐབས་ཇུས": 2579,
      "2020": 2580,
      "༢༦": 2581,
      "བསམ་པ": 2582,
      "དུག": 2583,
      "་མང་བ": 2584,
      "་ཞང": 2585,
      "རྣམ་འགྱུར": 2586,
      "་གནང་ཞིང་": 2587,
      "ལྗོངས་ཏང་ཨུད་ཀྱི": 2588,
      "ཕྲུ་གུ": 2589,
      "་འཐུས་ཚང་དུ་གཏོང": 2590,
      "་ཞབས": 2591,
      "་ལུའུ": 2592,
      "་རླུང་འཕྲིན་དྲ་བ": 2593,
      "་བྱེད་ས": 2594,
      "ཞིང་འབྲོག་པའི་": 2595,
      "ཧ་ཅང་": 2596,
      "སྲོག": 2597,
      "གདོད་མའི་": 2598,
      "་རྒྱལ་མཚན": 2599,
      "ཤུགས": 2600,
      "talk": 2601,
      "▁འཛམ་གླིང་": 2602,
      "མདོ": 2603,
      "་རྫོང་གིས་": 2604,
      "de": 2605,
      "་རྫོགས": 2606,
      "ཤེས": 2607,
      "སྨན་པ": 2608,
      "་ལག་བསྟར་བྱེད་པ": 2609,
      "ཅེས": 2610,
      "་ཐོན་པ": 2611,
      "▁དོན་ཚན": 2612,
      "་ཞིག་དང་": 2613,
      "་རབ་ཏུ": 2614,
      "སོགས་ཀྱི་": 2615,
      "འཐབ་རྩོད": 2616,
      "མཐུན་སྦྱོར་": 2617,
      "ཀྲུང་དབྱང་དང་": 2618,
      "སྒོ་དབྱེ": 2619,
      "་ཐམས་ཅད་": 2620,
      "གསོན་ཤུགས": 2621,
      "རིམ་པའི་": 2622,
      "ཐོན་སྐྱེད་དང་": 2623,
      "་ཁར་": 2624,
      "་ནང་དུ་": 2625,
      "ཟིན་ནས་": 2626,
      "་འགྲོ་བའི་": 2627,
      "་རྒྱག་པ": 2628,
      "རིམ་ཁག་": 2629,
      "es": 2630,
      "དུས་མཚུངས་ལས་": 2631,
      "་གསར་སྐྲུན": 2632,
      "་རོང": 2633,
      "་ཀུན་གྱི་": 2634,
      "▁འདིར་": 2635,
      "་རྐྱེན": 2636,
      "་སླར་གསོ": 2637,
      "་མཇལ": 2638,
      "་ཚང་གི་": 2639,
      "་བྷ": 2640,
      "་གཅིག་དང་": 2641,
      "དངུལ་བུན": 2642,
      "་ཅེ": 2643,
      "སྐར་མ": 2644,
      "ཞིང་ཆེན་དང་": 2645,
      "༨": 2646,
      "ཐད་ཀྱི་": 2647,
      "ཕོ": 2648,
      "་ལགས་ཀྱིས་": 2649,
      "Usaeon": 2650,
      "་རྐྱང": 2651,
      "རེད": 2652,
      "འོས་འགན་སློབ་གསོ": 2653,
      "ལྟ་སྐུལ་དོ་དམ་": 2654,
      "་རས": 2655,
      "་གཉིས་དང་": 2656,
      "་སྨྲ": 2657,
      "ཧྲུའུ་ཅི་": 2658,
      "གད་སྙིགས": 2659,
      "བོན་གྱི་": 2660,
      "ཆེད་སྒྲིག": 2661,
      "་སྲུང་སྐྱོབ": 2662,
      "་ཁྲོད": 2663,
      "▁རིག་གནས": 2664,
      "34": 2665,
      "་བྱས་པ་བརྒྱུད": 2666,
      "དེ་ལྟར": 2667,
      "སོ": 2668,
      "སྒོར་མོ": 2669,
      "▁རི": 2670,
      "གཞི་རིམ་གྱི་": 2671,
      "་བྱེད་": 2672,
      "ཚལ": 2673,
      "་རྒྱུ་མཐའ་འཁྱོངས": 2674,
      "▁གྲོང་ཁྱེར": 2675,
      "་ནམ": 2676,
      "་བསྒྲུབས": 2677,
      "ཀྲུང་གོས་": 2678,
      "་པོའི་": 2679,
      "རྟེན་འབྲེལ": 2680,
      "བློ་བརྟན་འགྱུར་": 2681,
      "སློབ་གྲྭ་ཆེན་མོ": 2682,
      "དུས་ཆེན་གྱི་": 2683,
      "མི་སྣ་": 2684,
      "་ཁུར": 2685,
      "▁ཆུང་": 2686,
      "་རྣམ་གྲངས": 2687,
      "▁དུས་ཚོད": 2688,
      "་སམ་": 2689,
      "རྩོམ་རིག་གི་": 2690,
      "▁ནོར་སྲིད་": 2691,
      "་གལ་ཆེན་ཞིག་ཡིན": 2692,
      "ཁྲིམས་འགལ་": 2693,
      "་ཆེ་མོ": 2694,
      "སྒྲུང": 2695,
      "མི་གྲངས་": 2696,
      "་སྡེ་བ": 2697,
      "སི་ཁྲོན་ཞིང་ཆེན་": 2698,
      "སྐྱོན": 2699,
      "ཤིན་ཧྭ་གསར་འགྱུར": 2700,
      "་གྲུ": 2701,
      "་ནོར་བུ": 2702,
      "ལས་སླར་རྙེད་": 2703,
      "རྗེས་སུ": 2704,
      "དཔྱད་རྩོམ": 2705,
      "་རེར་": 2706,
      "་པ་ནི": 2707,
      "དཔལ": 2708,
      "རང་": 2709,
      "▁ལིས་ཁི་ཆང་གིས་": 2710,
      "འཛུགས་སྐྲུན་བྱེད": 2711,
      "33": 2712,
      "་འཕྲོག": 2713,
      "བརྗོད་དོན་གཙོ་བོ": 2714,
      "དཔུང་ཁག": 2715,
      "་སྦྱངས": 2716,
      "་སམ": 2717,
      "ཟླ་བཅུ་བ་": 2718,
      "་ཡུང": 2719,
      "དུས་རབས་ཀྱི་": 2720,
      "སྡེ": 2721,
      "ཕྱོགས་སུ་": 2722,
      "▁དེ་ལྟར་": 2723,
      "ཚད་མཐོའི་": 2724,
      "་འབུད": 2725,
      "▁བློ་མཐུན་": 2726,
      "ད་རུང་": 2727,
      "་བཤེར": 2728,
      "དམིགས་བསལ་གྱི་": 2729,
      "་འཛུགས་པ": 2730,
      "་འབོད": 2731,
      "་ཡིན་ན་": 2732,
      "་ལྷོད་མེད": 2733,
      "ལམ་ཐིག": 2734,
      "སྒྱུ་རྩལ": 2735,
      "རིང་ལ་": 2736,
      "གླིང": 2737,
      "འདི": 2738,
      "བྱེད་སྒོའི་": 2739,
      "མཚམས": 2740,
      "་ཐལ": 2741,
      "སྤྱི་ལེ": 2742,
      "ས་མ": 2743,
      "མཆོད་རྟེན": 2744,
      "་ཁྲག": 2745,
      "་བྱེད་ཚད": 2746,
      "32": 2747,
      "མགོ་ཁྲིད": 2748,
      "ཅེས་བཤད": 2749,
      "་ཐོགས": 2750,
      "་ལ་ཡང་": 2751,
      "р": 2752,
      "རྒྱུ་ནོར་": 2753,
      "ལེའུ": 2754,
      "ཆར": 2755,
      "་ཆང": 2756,
      "་དེ་ཉིད་": 2757,
      "སྦགས་བཙོག": 2758,
      "་དབྱེ": 2759,
      "་འཁུར": 2760,
      "་བརྡ": 2761,
      "ཆེད་དུ": 2762,
      "འི་གནས་ཚུལ": 2763,
      "གཙོ་བོ་": 2764,
      "་ཕྲེང": 2765,
      "་གྱ": 2766,
      "གསར་སྤེལ་": 2767,
      "▁སློབ་གྲྭ": 2768,
      "ལམ་ལུགས་": 2769,
      "་དྲུག་གི་": 2770,
      "གོམ་སྟབས": 2771,
      "▁དེ་རྗེས་": 2772,
      "▁ཁོང་གིས": 2773,
      "གློག་རྡུལ་": 2774,
      "གཏམ": 2775,
      "་བཅུ་གསུམ": 2776,
      "་གསོལ": 2777,
      "་སྒོར": 2778,
      "་གསན": 2779,
      "་ཁང་དུ་": 2780,
      "སྙིང": 2781,
      "གཙོ": 2782,
      "ཚོགས་ཀྱི་": 2783,
      "ཨུ་ལྷན་གྱི་": 2784,
      "དྲོད": 2785,
      "་སྐྱེད": 2786,
      "་བྱས་པར་": 2787,
      "་བྱེད་པའི": 2788,
      "་ལས་དོན": 2789,
      "སྒོར་ཁྲི་": 2790,
      "ཕན": 2791,
      "་དེ་དག་གི་": 2792,
      "ཁྱབ་ཁང་": 2793,
      "་དང་ལེན": 2794,
      "རྨང་གཞིའི་སྒྲིག་": 2795,
      "འཁོར་བའི་": 2796,
      "འབད་འཐབ": 2797,
      "དམིགས": 2798,
      "་ཟིན་པའི་": 2799,
      "▁2018": 2800,
      "བདག་པོ": 2801,
      "མཚོན་རྟགས": 2802,
      "་གར": 2803,
      "ཁྲིམས་ལུགས་": 2804,
      "▁ཁོ": 2805,
      "རྩྭ་ཐང": 2806,
      "་སྤྲད": 2807,
      "་ཅན་": 2808,
      "▁ཀྲུང་དབྱང་གི་": 2809,
      "མི་དམངས་མང་ཚོགས": 2810,
      "us": 2811,
      "▁ཚོགས་ཐོག་ནས་": 2812,
      "བཟོ་སྐྲུན་": 2813,
      "འི་དགོངས་དོན་": 2814,
      "་དང་ལྷག་པར་དུ་": 2815,
      "་མ་ཟད་": 2816,
      "ས་ཁུལ་": 2817,
      "རྩྭ": 2818,
      "དར་རྒྱས": 2819,
      "ཐབས": 2820,
      "རྒྱལ་ས": 2821,
      "ن": 2822,
      "འགྲན་རྩོད": 2823,
      "་སྐུལ": 2824,
      "་གསོག": 2825,
      "་བྱེད་སྐབས": 2826,
      "་བ་": 2827,
      "མཁས་དབང": 2828,
      "་དོ་དམ་": 2829,
      "་ནས་ཤེས་རྟོགས་": 2830,
      "▁མང་ཚོགས་ཀྱི་": 2831,
      "ས་ཁོངས": 2832,
      "་མང་པོའི་": 2833,
      "འོ་མ": 2834,
      "་དང་མི": 2835,
      "་དང་བཅས་པ": 2836,
      "་ལ་སློབ་སྦྱོང": 2837,
      "བཞུགས་མོལ་ཚོགས་": 2838,
      "་རིམ་པ": 2839,
      "▁བྱ": 2840,
      "་ཁར": 2841,
      "་བོད་": 2842,
      "ic": 2843,
      "ཟློས་གར": 2844,
      "ཏང་ཨུད་ཀྱི་": 2845,
      "མ་རྩ": 2846,
      "་རུས": 2847,
      "་མི་རུང་": 2848,
      "་འཕགས": 2849,
      "ལྟ": 2850,
      "བསམ་བློ་དང་": 2851,
      "་འཇམ": 2852,
      "ب": 2853,
      "་གྲུབ་པ": 2854,
      "ས་ནས": 2855,
      "་སྟེང": 2856,
      "བཀའ་དྲིན": 2857,
      "བདེ་འཇགས་ཀྱི་": 2858,
      "་གྱི་ཡོད": 2859,
      "སྒྲོག་འགྲེལ": 2860,
      "འཇིག་རྟེན་": 2861,
      "་ཞིག་ཀྱང་ཡིན": 2862,
      "▁གྲོང་གསེབ་ཀྱི་": 2863,
      "་སྒྲུབ་པ": 2864,
      "▁རྟ": 2865,
      "དེར་": 2866,
      "་མོ་": 2867,
      "་བསྒྲུབ": 2868,
      "▁རིག་གནས་": 2869,
      "་ཡིན་ན": 2870,
      "འགྲོ་བ": 2871,
      "གཞོགས་འདེགས": 2872,
      "ནད་གཞི": 2873,
      "ཕྱི་ཕྱོགས་": 2874,
      "་ཚོགས་པ": 2875,
      "གནམ": 2876,
      "མི་ཤུགས་ཐོན་ཁུངས": 2877,
      "་ལས་བྱུང་བའི་": 2878,
      "་རྒྱབ": 2879,
      "▁ཞིང་ལས་": 2880,
      "་སྟེར": 2881,
      "▁མོ": 2882,
      "་མཆིས": 2883,
      "་ཡུལ་གྱི་": 2884,
      "▁༢": 2885,
      "སྣེ་ཁྲིད་དེ་": 2886,
      "ཆུས": 2887,
      "ཤུགས་རྐྱེན་ཐེབས": 2888,
      "མཉམ་ལས་ཀྱི་": 2889,
      "ཕན་པ": 2890,
      "འི་ནང་དུ་": 2891,
      "་དགོན་པ": 2892,
      "་དོན་": 2893,
      "དམག་འཁྲུག": 2894,
      "་བསྟར": 2895,
      "་གཏན་ནས": 2896,
      "▁ང": 2897,
      "▁ང་ཚོའི་": 2898,
      "་བཀོལ": 2899,
      "ཏང་": 2900,
      "་ཇ": 2901,
      "མ་": 2902,
      "འགག་སྒྲོལ་གྱི་": 2903,
      "2018": 2904,
      "ཡུལ་": 2905,
      "ཆང": 2906,
      "དར་སྤེལ": 2907,
      "་གཙོ་བོར": 2908,
      "འམ་ཡང་ན་": 2909,
      "ر": 2910,
      "་དཀར་": 2911,
      "་འཚོང": 2912,
      "་སྐྱབས": 2913,
      "་ཞེ": 2914,
      "ཤེས་ལྡན་མི་སྣ": 2915,
      "ལས་བྱེད་པས་": 2916,
      "དོན་དངོས་དང་": 2917,
      "་གཅིག་གྱུར": 2918,
      "་ཆུང་ཆུང": 2919,
      "བར་དུ་": 2920,
      "་བཀྲ": 2921,
      "རྒྱ་གར་གྱི་": 2922,
      "▁ཤོག་ངོས་": 2923,
      "་ཆེན་པོ་ཞིག": 2924,
      "▁གཉིས་ནས་": 2925,
      "W": 2926,
      "་སྐབས་ཀྱི་": 2927,
      "་ཕུའུ": 2928,
      "▁རང་གི་": 2929,
      "གྲོས་ཚོགས་ཐེངས": 2930,
      "འབྲེལ་གཏུག": 2931,
      "▁མིག་སྔར": 2932,
      "མི་རེའི་ཆ་སྙོམས་": 2933,
      "ཕྱོགས་ནས་": 2935,
      "འགག་སྒོ": 2936,
      "་མཐར": 2937,
      "ཚོང་ར": 2938,
      "སློབ་མར་": 2939,
      "x": 2940,
      "བྱུང་བ་ལྟར་ན": 2941,
      "་བདེན": 2942,
      "་དེའི་ནང་": 2943,
      "ཀྱང་": 2944,
      "ནི": 2945,
      "འི་ཐད་": 2946,
      "་ཐད": 2947,
      "་གོང་མ": 2948,
      "▁འགན་འཁུར་": 2949,
      "ཅུས་ཀྱིས་": 2950,
      "་དྲ": 2951,
      "སློབ་འབྲིང": 2952,
      "་ཞུ་བ": 2953,
      "སྲས": 2954,
      "ལྕགས་ལམ": 2955,
      "་ནན་ཏན": 2956,
      "ཐབས་ཤེས": 2957,
      "འི་རྣམ་པ": 2958,
      "ཁེ་ལས་ཀྱིས་": 2959,
      "གསུངས་རྒྱུར": 2960,
      "་ཞིབ་ཕྲ": 2961,
      "་ལ་མ": 2962,
      "་བོར": 2963,
      "བརྟན": 2964,
      "བོད་ལྗོངས": 2965,
      "་ཝུན": 2966,
      "གྲངས་འབོར": 2967,
      "sv": 2968,
      "གྲངས་གཞི": 2969,
      "་གླུ": 2970,
      "38": 2971,
      "་མཚན": 2972,
      "་བོད་ཀྱི་": 2973,
      "ཡོ་བྱད": 2974,
      "་ཞིག་ཡིན་པས": 2975,
      "ང་རང་": 2976,
      "མི་འདྲ་ས་": 2977,
      "འཇིགས་སྐུལ་": 2978,
      "་བཅས་ཡིན": 2979,
      "ི་ཞིས་ཅིན་ཕིང་གི": 2980,
      "་འོས": 2981,
      "་གཉིས་པའི་": 2982,
      "་བཅས་བྱས་ཏེ": 2983,
      "ས་ཤིང་": 2984,
      "་མཛད་པ": 2985,
      "་གཙོ་བོའི་": 2986,
      "་ཡིན་ནམ": 2987,
      "ཐོན་ལས་ཀྱི་": 2988,
      "དཀའ་གནད": 2989,
      "བདེ་འཇགས་དང་": 2990,
      "་བཅས་བྱེད་དགོས": 2991,
      "ikisource": 2992,
      "འཐབ་ཇུས": 2993,
      "་རྒྱལ་ཁབ་": 2994,
      "ལོ་གསར": 2995,
      "་སྤྲུལ": 2996,
      "་སྲས": 2997,
      "་ཐང་": 2998,
      "མ་འཇོག་": 2999,
      "སྲིད་ཇུས་ཀྱི་": 3000,
      "་མུ་མཐུད་དུ": 3001,
      "་སོ་སོར": 3002,
      "ཏང་ཡོན": 3003,
      "སྐྱེ་ཁམས་དཔལ་ཡོན": 3004,
      "་ལཱ": 3005,
      "སློབ་ཆེན་": 3006,
      "རྨ": 3007,
      "འོད": 3008,
      "འཆར་འགོད་": 3009,
      "་དབྱངས": 3010,
      "གནད་དོན་": 3011,
      "གསལ": 3012,
      "་མྱུར": 3013,
      "་རྒྱལ་": 3014,
      "མི་ཚེ": 3015,
      "ཀྲུང": 3016,
      "བཟོ་ཚོང་": 3017,
      "འབྲི": 3018,
      "་ནན་མོ": 3019,
      "ri": 3020,
      "འཕར་ཡོད": 3021,
      "་རྗེས་ཀྱི་": 3022,
      "སྲིད་ཇུས་དང་": 3023,
      "་ཆེ་ཞིང་": 3024,
      "བཅོས་བསྒྱུར": 3025,
      "རྒྱུ་ནོར": 3026,
      "སྣེ་ལེན": 3027,
      "་གཉིས་ཀ": 3028,
      "་སྨྲ་བ": 3029,
      "རྩིས": 3030,
      "▁..": 3031,
      "གྲངས": 3032,
      "ཡུན་རིང": 3033,
      "་ལེབ": 3034,
      "▁ཁོར་ཡུག་": 3035,
      "་སྡེ་བའི་": 3036,
      "བཅིངས་འགྲོལ": 3037,
      "ཕ་མ": 3038,
      "▁--": 3039,
      "བོད་རིག་པའི་": 3040,
      "རྣམ་ཐར": 3041,
      "ལེགས་སྒྲིག": 3042,
      "▁ཕ": 3043,
      "ཀུན་སྤྱོད": 3044,
      "་ཀྲུང": 3045,
      "རི་དྭགས": 3046,
      "་ཉར": 3047,
      "н": 3048,
      "དཔོན་པོ": 3049,
      "་དང་ཀྲུང་གོའི་": 3050,
      "་བཟོ་བའི་": 3051,
      "ཕོ་བྲང": 3052,
      "ཞིབ་ཕྲའི་": 3053,
      "་ཀློག": 3054,
      "་ཡོད་ཟེར": 3055,
      "་མེ་ཏོག": 3056,
      "ཡིག་གཟུགས": 3057,
      "་པདྨ": 3058,
      "སྒྲིག": 3059,
      "རིང་ལུགས": 3060,
      "་ཙ": 3061,
      "མྱུར་བགྲོད་": 3062,
      "་མེད་ཀྱི་": 3063,
      "▁གསུམ་པ": 3064,
      "▁ཁོང་གི་": 3065,
      "་སློང": 3066,
      "ཉིན་གློག་འཕྲིན་": 3067,
      "་ལུག": 3068,
      "་ཆགས་ཡོད": 3069,
      "༣": 3070,
      "Editor": 3071,
      "རྣ": 3072,
      "ཆེས": 3073,
      "el": 3074,
      "རང་ཉིད་ཀྱིས་": 3075,
      "་དང་ལྡན་པ": 3076,
      "་ཚད་ལྡན": 3077,
      "ངག": 3078,
      "་འཛུགས་པ་དང་": 3079,
      "་ཁང་གིས་": 3080,
      "་ཀྲུའུ": 3081,
      "་ཁྲིམས": 3082,
      "ཉིན་གྱི་": 3083,
      "ال": 3084,
      "་གྲོང་ཚོ": 3085,
      "▁ཀ": 3086,
      "་ཀེ": 3087,
      "་ལང": 3088,
      "་པུའུ": 3089,
      "▁སྤྱི་ལོ་": 3090,
      "མི་དམངས": 3091,
      "1000": 3092,
      "་གཡུ": 3093,
      "ནང་བསྟན་གྱི་": 3094,
      "ལག་པ": 3095,
      "་གསང": 3096,
      "བརྗོད": 3097,
      "་སྡོམ": 3098,
      "་གཅིག་པུ": 3099,
      "ཁྱོན་བསྡོམས་": 3100,
      "▁སྐྱེ་ཁམས་": 3101,
      "མཛེས་ལྗོངས": 3102,
      "་གདོང": 3103,
      "་ལྡན་ཡོད": 3104,
      "དགོན་སྡེ": 3105,
      "ག་པ": 3106,
      "གྲུབ་ཚུལ": 3107,
      "དགའ": 3108,
      "་དོ་དམ": 3109,
      "ས་རང་སྐྱོང་ཁུལ": 3110,
      "་བྱ་བར་": 3111,
      "་ཤེས་པ": 3112,
      "▁གཞན": 3113,
      "སློབ་གླིང": 3114,
      "བརྩེ་བ": 3115,
      "་སྣོན": 3116,
      "ཨུ་ཡོན": 3117,
      "་གོས": 3118,
      "་མཐོང་བ": 3119,
      "ལས་ཁུངས་དང་": 3120,
      "་ཡིན་ཟེར": 3121,
      "དྲ་ཚིགས": 3122,
      "དབྱེ་བ": 3123,
      "▁དེ་ལས་": 3124,
      "ལས་གཞིའི་": 3125,
      "་ཧྥུ": 3126,
      "་ཨང": 3127,
      "་རྒྱུ་ཡིན་པ": 3128,
      "བརྟན་འཇགས": 3129,
      "ཡུན་རིང་བདེ་འཁོད": 3130,
      "ཁྲིམས་སྲོལ": 3131,
      "་ལྟར་ན་": 3132,
      "。": 3133,
      "གཙུག་ལག་ཁང": 3134,
      "་མཐུད་": 3135,
      "སློབ་སྦྱོང་གི་": 3136,
      "སླར་གསོ": 3137,
      "་འཕེལ་རྒྱས་སུ": 3138,
      "རྒྱང་སྒྲོག་": 3139,
      "་ནམ་": 3140,
      "མེ་ལོང": 3141,
      "་ཞིག་ཏུ་གྱུར": 3142,
      "▁ཕྱོགས་ཡོངས་ནས་": 3143,
      "་ཁུལ་": 3144,
      "སྤེལ་རེས": 3145,
      "་བརྟེན": 3146,
      "་སྡུག": 3147,
      "་འགྲེམས་སྟོན": 3148,
      "་རིའི་": 3149,
      "འཁོར་ལོ": 3150,
      "འབྲེལ": 3151,
      "ཚེ་སྲོག": 3152,
      "ལས་མི": 3153,
      "་པའི་རེ་བ་བཏོན": 3154,
      "དྲ": 3155,
      "▁ཀྲུང་གོས་": 3156,
      "་འཇལ": 3157,
      "་ཧྲན": 3158,
      "་མཐོན་པོ": 3159,
      "་རྒྱས་པ": 3160,
      "་གཏོང་བར་": 3161,
      "འགྲུལ་སྐྱེལ་": 3162,
      "་དེ་ཉིད": 3163,
      "ཁྱད": 3164,
      "་ལྷ་མོ": 3165,
      "་སྒང": 3166,
      "་ཧི": 3167,
      "ཏང་ཨུད་དང་": 3168,
      "་གསར་དུ": 3169,
      "и": 3170,
      "་ཕལ་ཆེར": 3171,
      "་ཚོང": 3172,
      "་གཙོ་བོ་": 3173,
      "་ཞིག་ཀྱང": 3174,
      "ཚན་རིག་": 3175,
      "བློ་གྲོས": 3176,
      "་འཕྲད": 3177,
      "་ཉི་ཤུ": 3178,
      "་ཡོད་མེད": 3179,
      "་ཞིག་ལ": 3180,
      "ཨེ": 3181,
      "བོད་བརྒྱུད་": 3182,
      "བརྩེ་སེམས": 3183,
      "རྒྱལ་ཁབ་དང་": 3184,
      "གཞི་གྲངས": 3185,
      "་ཅེས་": 3186,
      "མཚན་སྙན": 3187,
      "བསམ་ཕྱོགས": 3188,
      "མུ": 3189,
      "2012": 3190,
      "J": 3191,
      "་རྒྱུགས": 3192,
      "གཅིག་གྱུར་གྱི་": 3193,
      "ལས་དབང": 3194,
      "་ཅེས་གསུངས་པ་རེད": 3195,
      "ལྷག་": 3196,
      "་བཅོ་བརྒྱད": 3197,
      "་ཡོངས་ཀྱིས་": 3198,
      "ནམ་ཡང་": 3199,
      "དེ་སྔའི་": 3200,
      "གནའ": 3201,
      "ཚུལ": 3202,
      "་ཞིག་ཡོད": 3203,
      "འཕར་བ་དང་": 3204,
      "་ལག་ལེན": 3205,
      "་བཞིན་འདུག": 3206,
      "ཕྱིར་ལོག": 3207,
      "་ཆུང་ངུ": 3208,
      "་ཀྱི་དགོངས་དོན": 3209,
      "་འཛུགས་སྐྲུན་དང་": 3210,
      "་མན": 3211,
      "་ཨང་": 3212,
      "ro": 3213,
      "▁ང་ཚོ་": 3214,
      "ངལ་རྩོལ་": 3215,
      "་མུ": 3216,
      "ཡང་དག་པའི་": 3217,
      "་དང་འདྲ་བར་": 3218,
      "མགོ་བོ": 3219,
      "བཅོས་སྒྲིག": 3220,
      "▁མཚོ": 3221,
      "གསང": 3222,
      "རིགས་སོ་སོའི་": 3223,
      "ཨོ": 3224,
      "ལྕགས་ལམ་": 3225,
      "ནན་བཤད་གནང་བ་རེད": 3226,
      "་རུང": 3227,
      "ཞེས་བཤད": 3228,
      "་བསྐྱངས": 3229,
      "་ཐེངས་": 3230,
      "ཁེ": 3231,
      "་སྡུད": 3232,
      "ཟིན": 3233,
      "སྲུང་སྐྱོང་དང་": 3234,
      "་བཞིན་དུ་": 3235,
      "འགྲོ་གྲོན": 3236,
      "▁——": 3237,
      "ས་གཞི": 3238,
      "མཚོན་བྱེད": 3239,
      "བཟོ་ལས་": 3240,
      "་གཅིག་གིས་": 3241,
      "་ཐུབ་ཡོད": 3242,
      "་གཡོ": 3243,
      "▁ཞིང་སྡེའི་": 3244,
      "ང་གིས་": 3245,
      "མིག་དཔེ": 3247,
      "་ཆོད": 3248,
      "་ཁའི་": 3249,
      "ཆེ": 3250,
      "སློབ་ཆེན་གྱི་": 3251,
      "་དོན་གྲུབ": 3252,
      "བཅའ་སྡོད་": 3253,
      "་གསལ་བོར": 3254,
      "སྤྱོད": 3255,
      "དགེ": 3256,
      "རང་དབང": 3257,
      "་གྲོང་ཚོར་": 3258,
      "་ལྷོད": 3259,
      "MediaWiki": 3260,
      "་བྱེད་ཀྱི་": 3261,
      "ཨ་མེ་རི་ཁ": 3262,
      "འཁོར་རྒྱུག": 3263,
      "་རུ་ཁག": 3264,
      "་རྟོག": 3265,
      "ཆེ་ཆུང་": 3266,
      "་མ་ཡིན་པའི་": 3267,
      "འཐབ་ཇུས་ཀྱི་": 3268,
      "་འབྲུ": 3269,
      "གྲུབ་འབྲས་": 3270,
      "▁2020": 3271,
      "དཔྱད": 3272,
      "▁ཁྲིམས་ལྟར་": 3273,
      "གླེང": 3274,
      "ཞིབ་འཇུག་གི་": 3275,
      "▁མེ": 3276,
      "མར": 3277,
      "་ཚུར": 3278,
      "འི་སྐོར": 3279,
      "་མ་": 3280,
      "་རྒྱ་མཚོའི་": 3281,
      "ཐེངས": 3282,
      "ཡོད་ཅིང་": 3283,
      "ཏང་ཨུའི་ཧྲུའུ་ཅི": 3284,
      "▁ཚེས": 3285,
      "སྔོན་གྱི་": 3286,
      "སྤྱོད་པ": 3287,
      "་སྐྱོབ": 3288,
      "ཁོངས་གཏོགས་": 3289,
      "རི་བོ": 3290,
      "ཞིང་ཆེན་གྱི་": 3291,
      "མྱུར་དུ་": 3292,
      "སྦྱོར་བ": 3293,
      "ི་ཞི་ཅིན་ཕིང་གིས": 3294,
      "གནས་ཚུལ་ལ་": 3295,
      "གནོད་པ": 3296,
      "ཟླ་དང་པོ་": 3297,
      "་བཞི་པ": 3298,
      "ཐད": 3299,
      "་མེན": 3300,
      "སྔོ་ཚལ": 3301,
      "་པར་གྱུར": 3302,
      "as": 3303,
      "ཉམས་འགྱུར": 3304,
      "འཁོར་སྐྱོད": 3305,
      "སྤྱི་བདེ་": 3306,
      "མཇུག་འབྲས": 3307,
      "་ཡོང་བར་": 3308,
      "་མི་སྣ": 3309,
      "༩": 3310,
      "་མངོན་གསལ": 3311,
      "་གསར་བའི་": 3312,
      "གཉེར": 3313,
      "འི་ཐོག་ནས་": 3314,
      "་རྣམས་ལ": 3315,
      "st": 3316,
      "སེམས་ཁྲལ": 3317,
      "དྲུང་ཡིག་ཆེན་མོ": 3318,
      "་སྒྲོག": 3319,
      "་བརྒལ": 3320,
      "དམག་མི": 3321,
      "་བཏོན་ཡོད": 3322,
      "་ཧའེ": 3323,
      "་པ་སྟེ": 3324,
      "་ཕྱེད": 3325,
      "མཉམ་འབྲེལ་རྒྱལ་": 3326,
      "་ནུ": 3327,
      "་རྣམ་རྒྱལ": 3328,
      "་ཕྲ": 3329,
      "ཕུགས་བསམ": 3330,
      "་བག": 3331,
      "ཟས་རིགས": 3332,
      "་ཐོ་འགོད": 3333,
      "་ཤིས": 3334,
      "་གཏན་འབེབས": 3335,
      "་ཚུད": 3336,
      "་མྱུར་དུ": 3337,
      "བོད་ལྗོངས་དྲ་བ": 3338,
      "་བྱས་རྗེས": 3339,
      "འགན་བཅོལ་": 3340,
      "་རྣམ་པར": 3341,
      "དོ་དམ་དང་": 3342,
      "་ཧྲ": 3343,
      "ཉེ་ཆར་": 3344,
      "མི་རྣམས་ཀྱི་": 3345,
      "སྲོལ": 3346,
      "ཞིང་འབྲོག་ཁུལ": 3347,
      "གསར་འགོད་པས་": 3348,
      "་ཤེལ": 3349,
      "འཕེལ་རྒྱས་འགྲོ་བ": 3350,
      "མི་རྣམས་ཀྱིས་": 3351,
      "ཚོགས་པའི་": 3352,
      "་ཡུན་རིང": 3353,
      "གཞས": 3354,
      "་འདི་ལ་": 3355,
      "་ཁག་གིས་": 3356,
      "་ཡིད": 3357,
      "་སུམ་ཅུ": 3358,
      "37": 3359,
      "་དྲིལ་བསྒྲགས": 3360,
      "་ཚང་འཛོམས་གྲོས་": 3361,
      "འཕོ་འགྱུར": 3362,
      "མཛེས": 3363,
      "སྲིད་ཁྲིམས་": 3364,
      "གཉེར་སྐྱོང་": 3365,
      "ལྗང་མདོག་": 3366,
      "བོད་ཡིག": 3367,
      "སྤོ": 3368,
      "་གནོན": 3369,
      "ཀྲུའུ་རེན་གཞོན་པ": 3370,
      "རིང་ལུགས་": 3371,
      "མངོན་མིན་": 3372,
      "བཅོས་སྐྱོང་": 3373,
      "་འགོ་ཚུགས": 3374,
      "་གསོ་སྦྱོང": 3375,
      "་སླེབས": 3376,
      "་འདྲེས": 3377,
      "་གསར་སྤེལ": 3378,
      "མི་རིགས་མཐུན་ས": 3379,
      "འབྱོར་འབྲིང་སྤྱི": 3380,
      "་དང་འབྲེལ": 3381,
      "བཅའ་ཁྲིམས་ཀྱི་": 3382,
      "་གཏོང་རྒྱུར་": 3383,
      "སྒྲུང་གཏམ": 3384,
      "གཉིས་ཀྱི་འབྲེལ་བ": 3385,
      "་མེད་པས་": 3386,
      "་ཚིགས": 3387,
      "དུས་མཚམས": 3388,
      "་གྲོང": 3389,
      "ཆུ་ཚོད": 3390,
      "རྒྱལ་ནང་གི་": 3391,
      "་བྱུང་བ་རེད": 3392,
      "མཛུབ་སྟོན་གལ་ཆེན": 3393,
      "▁སྤྱི་ཟླ": 3394,
      "་སོ་སོ": 3395,
      "ཞིང": 3396,
      "ི་ཞི་ཅིན་ཕིང་གི་": 3397,
      "སྙན་ངག་གི་": 3398,
      "▁འདི་ལོ་": 3399,
      "ཚབ": 3400,
      "བཀག་སྡོམ": 3401,
      "་དང་ཡང་ན་": 3402,
      "འཕར་སྣོན": 3403,
      "འབྲེལ་བའི་": 3404,
      "རང་འགུལ་ངང་": 3405,
      "གསུང་བཤད": 3406,
      "▁ན་ནིང་": 3407,
      "ཁྱོད": 3408,
      "དུས་ཡུན": 3409,
      "Help": 3410,
      "▁མཉམ་འབྲེལ་རྒྱལ་": 3411,
      "་མདོར་བསྡུས": 3412,
      "ར་སྐུལ་འདེད": 3413,
      "▁ཚེ": 3414,
      "་མི་ཤེས": 3415,
      "་གཤིས": 3416,
      "་མེད་པས": 3418,
      "་སོགས་སུ་": 3419,
      "རྗེ": 3420,
      "་མང་": 3421,
      "ra": 3422,
      "ས་ཁུལ་དུ་": 3423,
      "ངལ་གསོ": 3424,
      "འི་སྒོ་ནས": 3425,
      "▁ཡིག་ཚགས་": 3426,
      "་དྲུག་པ": 3427,
      "ལ་བ": 3428,
      "སྨན་རྫས་": 3429,
      "མཐའ་མཚམས་": 3430,
      "བསམ": 3431,
      "་པ་དང་འབྲེལ་": 3432,
      "སྡོད": 3433,
      "ཁྲལ": 3434,
      "་ངན་པ": 3435,
      "▁༡": 3436,
      "བསྒྱུར": 3437,
      "་འགོར": 3438,
      "ཨ་མེ་རི་ཁའི་": 3439,
      "་སྐམ": 3440,
      "མཆོད": 3441,
      "་ཤེས་རབ": 3442,
      "་བཞི་": 3443,
      "བང་སོ": 3444,
      "་ལ་མཚོན་ན་": 3445,
      "▁ལྗོངས་ཡོངས་ཀྱི་": 3446,
      "སྤྱི་ལོ་": 3447,
      "ཁ་གཏད་རོགས་སྐྱོར": 3448,
      "༢": 3449,
      "གྲོས་ཞིབ": 3450,
      "་རྔ": 3451,
      "▁གནས": 3452,
      "▁ཀྲུང་གོའི་བོད་": 3453,
      "་མ་གཏོགས": 3454,
      "ཀྲུང་དབྱང་གི་ས": 3455,
      "་འབར": 3456,
      "་གཏད": 3457,
      "་པུ": 3458,
      "་སྨི": 3460,
      "འཛུགས་སྐྲུན་ལ་": 3461,
      "་པར་བྱེད": 3462,
      "དམངས་གཙོ་": 3463,
      "་རྡུང": 3464,
      "༣༡": 3465,
      "ཧུར་བརྩོན": 3466,
      "▁ཀྲུང་ཧྭ་མི་རིགས": 3467,
      "་པོར": 3468,
      "5%": 3469,
      "རྟེན་འབྲེལ་": 3470,
      "ལོ་རེར་": 3471,
      "་ཡོད་ལ་": 3472,
      "་མི་ཆོག": 3473,
      "ཀྲུང་དབྱང་གིས་": 3474,
      "་གླེང་བ": 3475,
      "་འདྲ་བ": 3476,
      "་དེ་རེད": 3477,
      "▁ཀྲང": 3478,
      "65": 3479,
      "ལས་བྱེད་པ་": 3480,
      "སྒྲིག་གཞི་": 3481,
      "ཞེས་པ་": 3482,
      "ཁྱི": 3483,
      "▁དེར་བརྟེན་": 3484,
      "་མཚུངས": 3485,
      "་དང་འདྲ": 3486,
      "་ཡུལ་": 3487,
      "་མང་པོར་": 3488,
      "ཚགས་པར": 3489,
      "་བསྐྱོད": 3490,
      "སྨན་རྫས": 3491,
      "ཁྱོད་ཀྱི་": 3492,
      "ུག": 3493,
      "▁སྨན་བཅོས་": 3494,
      "་ཆར": 3495,
      "་ལྷོ": 3496,
      "བསླབ་བྱ": 3497,
      "م": 3498,
      "བཅོས་བསྒྱུར་": 3499,
      "ཞིང་པའི་": 3500,
      "ཛ": 3501,
      "་བཟོས་པ": 3502,
      "་གཅིག་ལ་": 3503,
      "མི་དམངས་ཁྲིམས་ཁང": 3504,
      "་ལ་དམིགས་ནས་": 3505,
      "བྱ་འགུལ་སྤེལ": 3506,
      "་གང་ཡིན": 3507,
      "39": 3508,
      "་མེད་དུ": 3509,
      "གར": 3510,
      "་ཕེབས": 3511,
      "་པ་སོགས": 3512,
      "་བྱེད་པ་ནི་": 3513,
      "ཆགས": 3514,
      "བྱེ་བྲག": 3515,
      "ཚན་ཁག": 3516,
      "ཡུན་རིང་": 3517,
      "སྐབས་སུ": 3518,
      "འགན་ཁུར་བ": 3519,
      "▁རྫོང་": 3520,
      "Moduletalk": 3521,
      "ལས་སྒོ": 3522,
      "་འདི་ཉིད": 3523,
      "Wikipediatalk": 3524,
      "▁༣": 3525,
      "་དེ་ལྟར": 3526,
      "ནང་མི": 3527,
      "་བརྩོན་ལེན": 3528,
      "་ཁུལ་དུ་": 3529,
      "Cateorytalk": 3530,
      "ར་རྒྱབ་སྐྱོར": 3531,
      "ལོ་ལྟར་": 3532,
      "Templatetalk": 3533,
      "▁ཁོང": 3534,
      "་ཞིབ་ཚགས": 3535,
      "བུད་མེད་ཀྱི་": 3536,
      "་བཟུང་ནས་": 3537,
      "་ངོས": 3538,
      "ཟླ་གཉིས་པ་": 3539,
      "ག་": 3540,
      "ངོ་སྤྲོད": 3541,
      "ཀྱི": 3542,
      "འགྲེམ་སྟོན": 3543,
      "དབུལ་ཐར་": 3544,
      "་གྲྭ": 3545,
      "༄༅": 3546,
      "་བྱོན": 3547,
      "ཐོབ": 3548,
      "སྒྲིག་སྲོལ་": 3549,
      "་དེ་བས་མང་བ": 3550,
      "མཐུན་སྦྱོར": 3551,
      "ཏང་དང་རྒྱལ་ཁབ": 3552,
      "་ཐུགས": 3553,
      "་བཀོལ་སྤྱོད": 3554,
      "་ལྟེ་གནས": 3555,
      "་ཟབ": 3556,
      "▁དམངས་སྲོལ": 3557,
      "་བཏོན་ནས་": 3558,
      "ཇུས་འགོད": 3559,
      "MediaWikitalk": 3561,
      "ལོངས་སྤྱོད": 3562,
      "་བྱས་པའི": 3563,
      "་མཁས་པ": 3564,
      "་འགོ་ཚུགས་པ": 3565,
      "སྣ": 3566,
      "གནད་སྨིན་": 3567,
      "འི་ནང་གི་": 3568,
      "གཟི་བརྗིད": 3569,
      "Module": 3570,
      "ཁྱིམ་ཚང་": 3571,
      "ལོའི": 3572,
      "་བཏོན་པ": 3573,
      "མཐུན་སྒྲིལ་དང་": 3574,
      "TalkUser": 3575,
      "Helptalk": 3576,
      "སྔར་ལས་": 3577,
      "་དགོན་པའི་": 3578,
      "Filetalk": 3579,
      "་དགོས་ཤིང་": 3580,
      "་ཁོང": 3581,
      "ཟེར་བ": 3582,
      "སྐར": 3583,
      "་ཅང": 3584,
      "གྲོས": 3585,
      "talkTopic": 3586,
      "GadetGadet": 3587,
      "ཁ་གསབ་": 3588,
      "གྲུབ": 3589,
      "རྒྱལ་ཁབ་ཕྱི་ནང་": 3590,
      "ཿ": 3591,
      "ུན": 3592,
      "་དེ་ལ་": 3593,
      "་ཞེས་གསུངས་པ་རེད": 3594,
      "བྱེད་ཕྱོགས": 3595,
      "་པའི་ལྡོག་ཕྱོགས་": 3596,
      "བཀོད་འདོམས": 3597,
      "་སྐལ་བཟང": 3598,
      "གསར་བརྗེའི་": 3599,
      "་རྡུལ": 3600,
      "ཐང་ཆེན": 3601,
      "ཞིབ": 3602,
      "ལྟ་སྐོར": 3603,
      "གནས་སྐོར་": 3604,
      "འི་ལོ་རྒྱུས": 3605,
      "གྲུ": 3606,
      "གནོད": 3607,
      "་མིན་པའི་": 3608,
      "་སྨོན": 3610,
      "་ཚུལ་ཁྲིམས": 3611,
      "འཕེལ་རྒྱས་གཏོང": 3612,
      "་བརྒྱད་པ": 3613,
      "་འདོད་ཡོད་ཟེར": 3614,
      "་འདུལ": 3615,
      "དྲིལ་སྒྲོག་": 3616,
      "0.6": 3617,
      "རིག་གནས་ཤུལ་བཞག་": 3618,
      "བྱང་ཚད": 3619,
      "་གང་རུང": 3620,
      "▁དོན": 3621,
      "དམངས": 3622,
      "་ཝུའུ": 3623,
      "ཉི་འོད": 3624,
      "ཉེས": 3625,
      "དུས་ཐོག་ཏུ་": 3626,
      "ཞིག": 3627,
      "སྲོག་ཆགས": 3628,
      "ཤེས་རིག": 3629,
      "་མིན་": 3630,
      "ཉེས་པ": 3631,
      "་ལིས་ཁི་ཆང་གིས་": 3632,
      "▁ཆེ": 3633,
      "ས་ལ": 3634,
      "་འཛུགས་སྐྱོང་ལ་": 3635,
      "མདུན་སྐྱོད": 3636,
      "ཟླ་བཅུ་གཉིས་པ་": 3637,
      "་ཁྲང": 3638,
      "་གྱོན": 3639,
      "ཆེད": 3640,
      "ཐ": 3641,
      "▁མིང་གནས་": 3642,
      "གཡང": 3643,
      "་ཐོབ་པའི་": 3644,
      "ཅེས་པ": 3645,
      "》(": 3646,
      "ཞི་བདེ་": 3647,
      "་རྙིང་པ": 3648,
      "་བྲིས་པ": 3649,
      "་བྱེད་བཞིན་པའི་": 3650,
      "་སར་": 3651,
      "་ཆོག་པའི་": 3652,
      "འགྲེལ་བཤད": 3653,
      "མཚོ་སྔོན་བོད་སྐད": 3654,
      "་བགྲོད": 3655,
      "དྲིལ་བསྒྲགས": 3656,
      "བསྒྱུར་བཅོས": 3657,
      "་བརྗེད": 3658,
      "▁2011": 3659,
      "དམག་དཔུང་": 3660,
      "་བཀའ": 3661,
      "་དངོས་སུ་": 3662,
      "46": 3663,
      "་ཚོད་འཛིན": 3664,
      "་ཆིན": 3665,
      "ཕྱུགས": 3666,
      "དཔྱད་གཞི": 3667,
      "་བྱའི་": 3668,
      "བྱུང་བ": 3669,
      "་མཐོ་བའི་": 3670,
      "བསམ་གཞིག": 3671,
      "རྫ": 3672,
      "་དུང": 3673,
      "་སྒྲུབ་པའི་": 3674,
      "་བཏང་བ་རེད": 3675,
      "་ལེན་པ": 3676,
      "་ཁྱོད": 3677,
      "ཏང་ཡོན་": 3678,
      "རུས": 3679,
      "དྲ་བའི་": 3680,
      "་སྤྱད་ནས་": 3681,
      "ར་མི": 3682,
      "5": 3683,
      "་པ་བཅས": 3684,
      "▁སེམས": 3685,
      "ཐོན་སྐྱེད་ཀྱི་": 3686,
      "མཐུན་ཚོགས་ཀྱི་": 3687,
      "་བཅུ་གསུམ་པའི་": 3688,
      "ཉན": 3689,
      "སངས་རྒྱས": 3690,
      "་ཀླུ": 3691,
      "་བཟང་": 3692,
      "ཏུ": 3693,
      "་ཨོ": 3694,
      "▁གཞན་": 3695,
      "སྐམ": 3696,
      "▁19": 3697,
      "་ཏཱ": 3698,
      "དག་ཐེར": 3699,
      "གླེང་མོལ": 3700,
      "གོ་དོན": 3701,
      "བཀོལ་སྤྱོད": 3702,
      "་ཞེས་པ་ནི་": 3703,
      "སློབ་ཆུང": 3704,
      "བརྙན་འཕྲིན": 3705,
      "་མཐའ་དག": 3706,
      "་གཏང་དགོས": 3707,
      "ྰ": 3708,
      "ཞིབ་དཔྱོད་": 3709,
      "་གནས་": 3710,
      "▁རྡོ": 3711,
      "སྣང་བརྙན": 3712,
      "ཡན་ལག": 3713,
      "་ཞིག་ཡིན་ཞིང་": 3714,
      "མ་ཎི": 3715,
      "་མཚོན་པ": 3716,
      "དུས་སུ་": 3717,
      "སྒྲིག་བཀོད་": 3718,
      "་བྱ་ཆེད་": 3719,
      "རྨང་གཞི་བརྟན་པོ": 3720,
      "ཕྱིར་": 3721,
      "ཡོངས་བསྒྲགས": 3722,
      "་ཕུན་ཚོགས": 3723,
      "་ཊ": 3724,
      "་རྙིང": 3725,
      "ནགས་ཚལ་": 3726,
      "༥": 3727,
      "གནོན་ཤུགས": 3728,
      "42": 3729,
      "གཟུགས་བརྙན": 3730,
      "སྲིད": 3731,
      "་ཀོང": 3732,
      "ཞིང་འབྲོག་ལས་": 3733,
      "་ངག": 3734,
      "་རིང་མོ": 3735,
      "་ནང་ཞུགས": 3736,
      "་ཡོད་ཚད": 3737,
      "་དེ་ཙམ": 3738,
      "▁རིམ་པ་སོ་སོའི་": 3739,
      "ལས་ཀར་": 3740,
      "་སྔོ": 3741,
      "བོད་ཡིག་གི་": 3742,
      "་ཚབ": 3743,
      "ཁུལ་གྱི་": 3744,
      "་གསལ་བོ": 3745,
      "ལོ་ཙཱའི་": 3746,
      "རིམས་ནད": 3747,
      "རྡོ་རིང": 3748,
      "་དང་མཐུན་པའི་": 3749,
      "ཞི་ཅིན་ཕིང་གི་": 3750,
      "ལོ་རྒྱུས་དང་": 3751,
      "མཉམ་ལས་ཁང": 3752,
      "གྲོང་ཚོ་": 3753,
      "བསྟན་པའི་": 3754,
      "སྤོས": 3755,
      "གཟུགས": 3756,
      "་ཆེན་མོའི་ནང་": 3757,
      "་ཚོས": 3758,
      "་ཁྲིན": 3759,
      "སྤྱི་ཕན་": 3760,
      "at": 3761,
      "་ཅེས་པའི་": 3762,
      "་བཀོད་པ": 3763,
      "་རིམ་གྱིས": 3764,
      "ཁྲིད": 3765,
      "ཁྱབ་ཁང་གིས་": 3766,
      "་ཟམ": 3767,
      "བྱང": 3768,
      "སྤྱི་སྤྱོད་": 3769,
      "ནགས": 3770,
      "▁ཞིང་འབྲོག": 3771,
      "56": 3772,
      "སྒྲིག་ཁྲིམས": 3773,
      "་འགག": 3774,
      "་བཙུགས་ཏེ་": 3775,
      "མི་རབས": 3776,
      "མངལ": 3777,
      "་བྱ་རྒྱུ་ཡིན་པ": 3778,
      "་ཡོངས": 3779,
      "ངོས": 3780,
      "་ལྡན་གྱི་": 3781,
      "་མང་པོས་": 3782,
      "གྲང": 3783,
      "▁སྐུ": 3784,
      "སྐྱེས་བུ": 3785,
      ":20": 3786,
      "ལམ་ལུགས་ཀྱི་": 3787,
      "་འོང": 3788,
      "་འཛིན་གྲྭ": 3789,
      "རིག་ཚན": 3790,
      "སི": 3791,
      "འགྲན་སྡུར": 3792,
      "་རྩྭ": 3793,
      "གས་རྒྱུན་ལས་": 3794,
      "ཚང་མ་": 3796,
      "སྨོན་ལམ": 3797,
      "ན་གཞོན": 3798,
      "རྒྱ་ཡིག": 3799,
      "སྐྱེས": 3800,
      "་དབྱིན": 3801,
      "འི་ནང་དུ": 3802,
      "གསར་འགོད་པའི་": 3803,
      "དམག་དཔུང་གི་": 3804,
      "བོད་ཀྱིས་": 3805,
      "་འཁྲིད": 3806,
      "འདུ་ཤེས་དང་": 3807,
      "་ཁག་གཅིག": 3808,
      "བྲིས་པའི་": 3809,
      "་ལྔ་བཅུ": 3810,
      "ལས་དོན་ཡག་པོ": 3811,
      "▁རྗེ": 3812,
      "སྒྲིག་ཆས་": 3813,
      "ི་ཞི་ཅིན་ཕེན་གྱི": 3814,
      "▁བོད་རང་སྐྱོང་": 3815,
      "་ལས་དོན་": 3816,
      "་དབང་": 3817,
      "གཏོང": 3818,
      "ha": 3819,
      "ནུབ": 3820,
      "▁ལྷ་ས་གྲོང་ཁྱེར་": 3821,
      "རྒྱལ་བོ": 3822,
      "་ཁྱུང": 3823,
      "་དེ་ཡང་": 3824,
      "གྲོས་ཚོགས་བསྡུས": 3825,
      "་བཞག་པ": 3826,
      "བསྡུས": 3827,
      "་སྤེལ་བའི་": 3828,
      "ར་ཁང་": 3829,
      "་མཁས": 3830,
      "་རྒོལ": 3831,
      "་དམ་འཛིན": 3832,
      "བློན་ཆེན": 3833,
      "་འབྲིང": 3834,
      "རྒྱལ་སྲུང་": 3835,
      "ཡར་སྐུལ": 3836,
      "ཆབ་སྲིད": 3837,
      "འཛད་སྤྱོད་": 3838,
      "ལྷ་ས་": 3839,
      "མཁས": 3840,
      "ཁེ་དབང": 3841,
      "གྲུ་གཟིངས": 3842,
      "གྲྭ་བཙུན": 3843,
      "་ཐོག་གི་": 3844,
      "འི་ཐོག": 3845,
      "ཚོང་ཁང": 3846,
      "ཀྲུའུ་རེན": 3847,
      "རིང་གི་": 3848,
      "་བཅོལ": 3849,
      "be": 3850,
      "ཕ་རོལ": 3851,
      "་འཛུགས་རྒྱུ": 3852,
      "ཅན་གྱི་": 3853,
      "་དཀའ་བའི་": 3854,
      "དཔའ": 3855,
      "བསམ་ཚུལ": 3856,
      "མདའ": 3857,
      "་རྟེན་གཞི": 3858,
      "་བཅངས": 3859,
      "ཞབས་ཞུ་": 3860,
      "་གནང་ནས་": 3861,
      "་བྱེད་དགོས་ཞེས་": 3862,
      "་རྒྱལ་སྤྱིའི་": 3863,
      "་ཡོང་རྒྱུར་": 3864,
      "པུས་": 3865,
      "མཛད་སྒོ": 3866,
      "ཉིན་ནས་བཟུང་": 3867,
      "་སོ་སོས་": 3868,
      "་གསལ་བར": 3869,
      "སློབ་གཉེར": 3870,
      "འི་སྐུ": 3871,
      "ཆེད་ལས": 3872,
      "༤": 3873,
      "བའི་": 3874,
      "་རྣམས་ཀྱིས": 3875,
      "་དྲངས": 3876,
      "རྣམ་ཤེས": 3877,
      "ཡིག་ཚགས": 3878,
      "ནགས་ལས་": 3879,
      "་ཕྲན": 3880,
      "གི": 3881,
      "གྲོས་ཚོགས་ལ་ཞུགས": 3882,
      "མཁན་པོ": 3883,
      "ཁྱབ་བསྒྲགས་བྱས་པ": 3884,
      "ར་ཡང་": 3885,
      "གོམས་སྲོལ": 3886,
      "་ཐད་ལ་": 3887,
      "ཕྱོགས་ཀྱི་": 3888,
      "་བསྡུས་པ": 3889,
      "་འཛུགས་སྐྲུན་": 3890,
      "མི་འབོར": 3891,
      "་རང་བཞིན་དང་": 3892,
      "་འཕྲོ": 3893,
      "་དུས་ཀྱི་": 3894,
      "གྲངས་ཀ": 3895,
      "སྡེ་ཁུལ": 3896,
      "ཉིན་བར": 3897,
      "བརྟག་དཔྱད་": 3898,
      "ཤེས་བྱའི་": 3899,
      "གྱོན་ཆས": 3900,
      "རིང་ལ": 3901,
      "་འཚོལ་ཞིབ": 3902,
      "བདེ་བ": 3903,
      "རེ་ཞུ": 3904,
      "་པའི་བླང་བྱ་བཏོན": 3905,
      "མི་ཚེའི་": 3906,
      "དེ་གར་": 3907,
      "ཤེས་ལྡན་པ": 3908,
      "ནང་རྐྱེན": 3909,
      "▁ཀྲུང་གུང་ཀྲུང་": 3910,
      "་དུ་བཅུག": 3911,
      "ཡུལ་སྐོར་ལས་རིགས": 3912,
      "གྲོང་སྡེ": 3913,
      "་ཁ་གསལ": 3914,
      "བདེ": 3915,
      "་ལས་གཞི": 3916,
      "སེམས་ཁམས": 3917,
      "ཆེད་མཁས་པ": 3918,
      "གསར་གཏོད་ཀྱི་": 3919,
      "་དང་འབྲེལ་བ": 3920,
      "▁རྒྱལ་ཁབ་གཉིས": 3921,
      "it": 3922,
      "ས་ཁུལ་དང་": 3923,
      "གནད་དོན་ལ་": 3924,
      "མཁར": 3925,
      "གཟིགས་སྐྱོང་": 3926,
      "་འབོར་ཆེན": 3927,
      "ལྟ་ཞིབ་ཚད་ལེན": 3928,
      "་ཞ": 3929,
      "གོས": 3930,
      "ཞང": 3931,
      "གཅིག་སྡུད་": 3932,
      "་བྱེད་པར": 3933,
      "་ཚོགས་འདུར་ཞུགས": 3934,
      "་ལ་གཞིགས་ནས་": 3935,
      "་ད་དུང": 3936,
      "དགུན་དུས་": 3937,
      "ལོ་ཙཱ་བ": 3938,
      "རླུང་འཕྲིན་": 3939,
      "དཀྱིལ་འཁོར": 3940,
      "▁གཤམ་གྱི་": 3941,
      "་མང་བའི་": 3942,
      "བརྩམས་སྒྲུང": 3943,
      "་གདུང": 3944,
      "སྐྱེལ་འདྲེན": 3945,
      "ཆུ་བོ": 3946,
      "▁ལས": 3947,
      "་སྤོ": 3948,
      "རུ་ཁག": 3949,
      "་མངོན་འགྱུར་བྱེད": 3950,
      "་སྐར": 3951,
      "་ཧུང": 3952,
      "་ཧྲེང": 3953,
      "མཛོད": 3954,
      "སྲུང་སྐྱོབ་དང་": 3955,
      "མེད་ངང་": 3956,
      "གདན་ས": 3957,
      "དེ་ནས་": 3958,
      "ང་གི་": 3959,
      "་མང་ཙམ": 3960,
      "སློབ་ཁྲིད་ཀྱི་": 3961,
      "ང་ཚོ": 3962,
      "་གི་ཡོད": 3963,
      "▁ཚང་མས་": 3964,
      "དམངས་འཚོའི་": 3965,
      "་ལུང་": 3966,
      "▁ཐོག་མར་": 3967,
      "་ཨུ": 3968,
      "སྙན": 3969,
      "་པ་ལས": 3970,
      "བསམ་བློ་": 3971,
      "་བདུན་པ": 3972,
      "་ཧུའུ": 3973,
      "་བཙལ": 3974,
      "་ཟུང": 3975,
      "་ཁུང": 3976,
      "་གཞུང་": 3977,
      "འཆར": 3978,
      "འགན་ལེན་": 3979,
      "་མཁྱེན": 3980,
      "་གཅིག་སྡུད": 3981,
      "འཛུགས་སྐྲུན་དང་": 3982,
      "་ལིང": 3983,
      "ཉིན་བར་": 3984,
      "་ཧོང": 3985,
      "དོན་ཐོག་ཏུ་འཁྱོལ": 3986,
      "སྲུང་སྐྱོང་ཁུལ": 3987,
      "་ཡོད་པར": 3988,
      "ap": 3989,
      "་བསྐྲུན་པ": 3990,
      "་པའི་ཕྱིར": 3991,
      "ས་ཏེ་": 3992,
      "དགེ་རྒན་ཆེན་མོ": 3993,
      "་སེང": 3994,
      "ལྷ་ས": 3995,
      "རྩ་འཛུགས་ཀྱིས་": 3996,
      "pixels": 3997,
      "་ལྡིང": 3998,
      "བྲིས": 3999,
      "བརྒྱུད": 4000,
      "་བཅས་ཡིན་པའི་": 4001,
      "་བརྒྱ་དང": 4002,
      "་སྐུད": 4003,
      "སྤྲུལ་སྐུ": 4004,
      "་དང་བསྟུན་ནས": 4005,
      "ཡུལ་ལྗོངས": 4006,
      "ོན": 4007,
      "th": 4008,
      "འགན་ནུས": 4009,
      "མེ་འཁོར": 4010,
      "47": 4011,
      "་འགུལ": 4012,
      "ཟིན་ཐོ": 4013,
      "་དགོས་ལ": 4014,
      "་ཁག་ཅིག": 4015,
      "་འཁྲུངས": 4016,
      "ལས་གྲྭའི་": 4017,
      "པུའུ": 4018,
      "་སྲིད་གཞུང་གིས་": 4019,
      "ངལ་རྩོལ": 4020,
      "se": 4021,
      "སྐད་ཡིག་": 4022,
      "་སྲིན": 4023,
      "0.2": 4024,
      "▁གལ་སྲིད་": 4025,
      "ཀྲུང་གོ་མི་དམངས་": 4026,
      "ཡིན་པ་དང་": 4027,
      "▁ཤིང": 4028,
      "སྐུལ་འདེད་བཏང་བ": 4029,
      "48": 4030,
      "་འཕེལ་བ": 4031,
      "ur": 4032,
      "རིག་པའི་": 4033,
      "དྲོད་ཚད": 4034,
      "གྲོས་ཚོགས་": 4035,
      "་ཡངས": 4036,
      "བརྩོན་ལེན": 4037,
      "བརྟན་པོ": 4038,
      "་འགྲིག": 4039,
      "་སྔགས": 4040,
      "འཐུས་ཚོགས་ཆེན་": 4041,
      "་མངོན་པ": 4042,
      "དབྱེ་ཞིབ": 4043,
      "གླུ་གཞས": 4044,
      "ད་པ": 4045,
      "དོན་ཆེན": 4046,
      "▁དགུང་ལོ": 4047,
      "་ཕར": 4048,
      "རིམ་བཞིན་": 4049,
      "མི་འབོར་": 4050,
      "་ལམ་གྱི་": 4051,
      "་བཏང་ཞིང་": 4052,
      "བཤད་པ": 4053,
      "འཐུས་ཚབ་ཚོགས་པ": 4054,
      "འདྲ": 4055,
      "་རྭ": 4056,
      "་སྤོས": 4057,
      "མཆོད་པ": 4058,
      "ཨི": 4059,
      "ཡར་ཐོན": 4060,
      "ཉེ": 4061,
      "་གཡུང་དྲུང": 4062,
      "ད་དུང་གཟིགས་": 4063,
      "གངས་རི": 4064,
      "་ཤང་གི་": 4065,
      "▁རྡོ་རྗེ": 4066,
      "་མཁན་གྱིས་": 4067,
      "ཁུལ་": 4068,
      "རྐྱེན་སྲོལ": 4069,
      "འགག་སྒྲོལ་": 4070,
      "འཚོ་བཅུད": 4071,
      "ཐོ": 4072,
      "དེ་དག": 4073,
      "་བེ": 4074,
      "ཆག": 4075,
      "་ཞུས་པ": 4076,
      "་པ་ལ": 4077,
      "གྲོས་ཚོགས་ཀྱི་": 4078,
      "་བཅོ་ལྔ": 4079,
      "་འཕུར": 4080,
      "ིང": 4081,
      "་ཁྱི": 4082,
      "རེ་སྒུག": 4083,
      "་བཙུགས་པ་དང་": 4084,
      "་མི་དགོས": 4085,
      "མཚོ་ཤར་གྲོང་ཁྱེར": 4086,
      "་རྣམ་པའི་": 4087,
      "ཕྱི་རྒྱལ་གྱི་": 4088,
      "ཨུ་རུ་སི": 4089,
      "གནམ་གཤིས": 4090,
      "་བཟང་བ": 4091,
      "་ཁང་དང་": 4092,
      "་སྣ་ཚོགས་": 4093,
      "འཁྲུག་རྩོད": 4094,
      "་སྐྱོར": 4095,
      "སྨན་ཁང་གི་": 4096,
      "་ཨང་དང་པོ": 4097,
      "ཁྱིམ་དུ་": 4098,
      "མཐུན་རྐྱེན": 4099,
      "▁གང་དག་": 4100,
      "▁>": 4101,
      "་གསབ": 4102,
      "un": 4103,
      "་མུས": 4104,
      "▁ཐ་ན་": 4105,
      "འཆར་འགོད་དང་": 4106,
      "རླབས་ཆེན་": 4107,
      "་ཚོན": 4108,
      "སྐབས་": 4109,
      "ཚང་མས་": 4110,
      "་དྲུག་": 4111,
      "རོགས་སྐྱོབ": 4113,
      "སི་ཁྲོན་": 4114,
      "་དྲོད": 4115,
      "ཞིང་ཆེན་ཏང་ཨུ": 4116,
      "་འདོན་སྤྲོད": 4117,
      "་གཞས": 4118,
      "་འཇོམས": 4119,
      "་གསུང་བཤད་གལ་ཆེན": 4120,
      "་མཆེད": 4121,
      "ཆུང་མ": 4122,
      "གོ་བ": 4123,
      "་ཡོང་རྒྱུ": 4124,
      "་བསད": 4125,
      "་འབྱུང་བའི་": 4126,
      "ཡོང་ཁུངས་": 4127,
      "་དྲི": 4128,
      "་བྱེད་པའི་ཐད་": 4129,
      "་བྱེད་ཚད་": 4130,
      "ས་སུ": 4131,
      "ཡོ་རོབ་གླིང་": 4132,
      "འཛིན": 4133,
      "འབྲུ་རིགས་": 4134,
      "ཁྱིམ་མི": 4135,
      "ཡུལ་གྱི་": 4136,
      "་དར་རྒྱས": 4137,
      "་མ་ཐག": 4138,
      "ལྷ་ཁང": 4139,
      "▁དེ་": 4140,
      "་ཡཱ": 4141,
      "▁གསུམ་ནས་": 4142,
      "དེང་རབས་ཅན་གྱི་": 4143,
      "": 4144,
      "ཤོག": 4145,
      "གཟི": 4146,
      "་ཡོད་དམ": 4147,
      "་ཕྱུག": 4148,
      "འབྲོག": 4149,
      "་གཏོང་རྒྱུའི་": 4150,
      "ལག་བསྟར་": 4151,
      "བསྐྱར": 4152,
      "སྔོན་འགོག": 4153,
      "སྐྱེས་པ": 4154,
      "ཅན": 4155,
      "་བསྟོད": 4156,
      "▁ཅི": 4157,
      "་ཞིང་ཆེན་": 4158,
      "བར་དུ": 4159,
      "་སྣུམ": 4160,
      "•": 4161,
      "་ཤིན": 4162,
      "་ཤག": 4163,
      "་ཡོད་པ་མ་ཟད": 4164,
      "གླ": 4165,
      "7": 4166,
      "ལྟ་སྐུལ་ཞིབ་བཤེར": 4167,
      "ལྷ་མོ": 4168,
      "▁བཞི": 4169,
      "་རི་": 4170,
      "་མི་འདྲ་བའི་": 4171,
      "་གཙང་མ": 4172,
      "་ཆེས་ཆེར": 4173,
      "་སི་": 4174,
      "་ལ་ཞིབ་འཇུག": 4175,
      "ཡིག་རྒྱུགས": 4176,
      "་ལ་ཤུགས་སྣོན་པ": 4177,
      "བསྡོམས་པས་": 4178,
      "་སྤྱོད་པ": 4179,
      "▁དུས་རབས": 4180,
      "ུའེ": 4181,
      "ཞེས་དང་": 4182,
      "་ཞོ": 4183,
      "▁ཀླུ་མོ་མཚོ": 4184,
      "སྐྱེ": 4185,
      "ཁོ་ཚོའི་": 4186,
      "འབྲེལ་ཡོད་སྡེ་ཚན": 4187,
      "་དུས་ཆེན": 4188,
      "་གལ་ཆེ": 4189,
      "བརྟན་ལྷིང": 4190,
      "གོ་ལ་ཧྲིལ་པོའི་": 4191,
      "་འདོན་པ": 4192,
      "་ནཱ": 4193,
      "ལྟེ་བ": 4194,
      "ཁོང་": 4195,
      "་ངོས་འཛིན": 4196,
      "གཉེན": 4197,
      "གཞི་": 4198,
      "དཀར": 4199,
      "hi": 4200,
      "སྡེ་ཁག་གི་": 4201,
      "ཨང": 4202,
      "པར་གཞི": 4203,
      "ཀོ": 4204,
      "་རགས": 4205,
      "རང་ཉིད་ལ་": 4206,
      "་ཐུ": 4207,
      "་ཕུང": 4208,
      "མཇུག": 4209,
      "གཟའ་འཁོར": 4210,
      "མདུན": 4211,
      "44": 4212,
      "གཉིས་ཀྱི་": 4213,
      "ཁེ་ལས་དང་": 4214,
      "མེད": 4215,
      "་ལྔ་པ": 4216,
      "་བྲོ": 4217,
      "ཞིབ་དཔྱད": 4218,
      "འབྲེལ་བ་ཡོད་པའི་": 4219,
      "་གང་དུ": 4220,
      "▁བཀྲ་ཤིས": 4221,
      "་སྒོམ": 4222,
      "་ཚེ་རིང་": 4223,
      "ཤེས་རབ": 4224,
      "སྤུ": 4225,
      "མཐོ": 4226,
      "43": 4227,
      "་མ་ཡིན": 4228,
      "་འཁྲབ": 4229,
      "གནས་སྤོ": 4230,
      "༧": 4231,
      "རོགས་སྐྱོབ་": 4232,
      "▁འབྲིང་": 4233,
      "འབྲོག་པའི་": 4234,
      "རྒྱལ་རབས": 4235,
      "སྟག": 4236,
      "རྒྱ་གར་": 4237,
      "ལངས་ཕྱོགས": 4238,
      "་ཧྥེ": 4239,
      "ཏང་ཨུ་དང་": 4240,
      "་བཅས་སུ་": 4241,
      "་ཤོར་བ": 4242,
      "་ཡོད་དོ": 4243,
      "དྲང་བདེན": 4244,
      "དྲུག": 4245,
      "དགེ་མཚན་ལྡན་པའི་": 4246,
      "བོད་ཁུལ་གྱི་": 4247,
      "འཆད་ཁྲིད": 4248,
      "▁1": 4249,
      "རང་རེའི་": 4250,
      "ར་འགྱུར་བ": 4251,
      "▁དེ་ནས": 4252,
      "གསར་འགོད་པ": 4253,
      "ུ་ཚང་འཛོམས་གྲོས་": 4254,
      "་དོར": 4255,
      "རྣམ་པ་གསར་པ": 4256,
      "སྐྲ": 4257,
      "བརྩེ་དུང": 4258,
      "རྒྱུག": 4259,
      "་མི་ཉུང་བ་ཞིག": 4260,
      "་དང་ལྷན་དུ་": 4261,
      "▁ཁུལ་": 4262,
      "ཁང་བ": 4263,
      "ཞབས་འདེགས": 4264,
      "▁འགན་འཁྲི": 4265,
      "རེ་འདུན": 4266,
      "་རྒྱུད་ཀྱི་": 4267,
      "་དབུ": 4268,
      "་གླ": 4269,
      "ཞབས་བྲོ": 4270,
      "སྲིད་དབང": 4271,
      "གཉེར་སྐྱོང": 4272,
      "་ཀྱི་ནུས་པ": 4273,
      "་ཤེས་རྟོགས": 4274,
      "ཡིན་པ": 4275,
      "རྒྱལ་ཁབ་གཉིས་པོ": 4276,
      "བསྟུད་མར་": 4277,
      "ཚོང་རའི་": 4278,
      "▁དེ་དག": 4279,
      "བཀའ་འགྱུར": 4280,
      "གོང་གི་": 4281,
      "་རིལ": 4282,
      "་ཨུ་ཡོན་ལྷན་ཁང": 4283,
      "མཛུབ་སྟོན་": 4284,
      "▁གཅིག་ནས་": 4285,
      "སྐུལ་སྤེལ": 4286,
      "་ནས་ཡོང་བའི་": 4287,
      "▁ཕྱོགས": 4288,
      "འི་དོན": 4289,
      "་འོས་འཚམ": 4290,
      "་ཞིག་ཏུ་གྱུར་ཡོད": 4291,
      "རྩི་ཤིང": 4292,
      "རྨོ": 4293,
      "་བྱེད་རྒྱུ་རེད": 4294,
      "འི་གནད་དོན": 4295,
      "о": 4296,
      "དངོས་རྫས": 4297,
      "དོ": 4298,
      "་སྤེལ་བ་དང་": 4299,
      "བྱུང་བའི་": 4300,
      "ཚོགས་འདུའི་སྟེང་": 4301,
      "49": 4302,
      "་བསྐུར": 4303,
      "བརྒྱད་པའི་ཀྲུང་ཨ": 4304,
      "ad": 4305,
      "་མུའུ": 4306,
      "བག་ཆགས": 4307,
      "འགོ་ཁྲིད་ལས་བྱེད": 4308,
      "བསྔགས་བརྗོད": 4309,
      "་བྱེད་རིང་": 4310,
      "བཟོ": 4311,
      "་ཞྭ": 4312,
      "སྨད": 4313,
      "་ཉ": 4314,
      "▁ཀྲུང་དབྱང་དམག་": 4315,
      "ནོར་སྲིད་ཀྱིས་": 4316,
      "▁ཡ": 4317,
      "ཀུན་སྤྱོད་": 4318,
      "1": 4319,
      "འགན་འཁྲིའི་": 4320,
      "འགྲོ་ལམ": 4321,
      "400": 4322,
      "བྱ་བ་": 4323,
      "་བཀག": 4324,
      "དྲན": 4325,
      "་རྩོད": 4326,
      "ཏང་གིས་": 4327,
      "པར་རིས": 4328,
      "མི་སྣས་": 4329,
      "་དུག": 4330,
      "་བསྟན་ཡོད": 4331,
      "སློབ་གྲོགས": 4332,
      "་བརྒྱད་ཀྱི་": 4333,
      "་རྒྱུ་དེ་": 4334,
      "གསུང་རབ": 4335,
      "་ཅུན": 4336,
      "འི་ནད": 4337,
      "འོད་ཟེར": 4338,
      "་ཁྱབ་གདལ": 4339,
      "་པར་འདོད": 4340,
      "དངོས་པོའི་": 4341,
      "བརྒྱད": 4342,
      "ཞབས": 4343,
      "གྲོང་ཚོར་བཅའ་སྡོ": 4344,
      "བསམ་གཞིགས": 4345,
      "0.3": 4346,
      "་སྡོང": 4347,
      "བྱེད་སྤྱོད": 4348,
      "ཅི་ཞིག": 4349,
      "གསང་བ": 4350,
      "ཕྱོགས་གཉིས་ཀྱིས་": 4351,
      "ཁོང་ལ་": 4352,
      "མཛེས་པའི་": 4353,
      "་ཤས": 4354,
      "་རྐྱེན་ལམ་དུ་ཤོར": 4355,
      "་སོ་སོར་": 4356,
      "▁རྫོང": 4357,
      "ཚོགས་ཐེངས་གསུམ་པ": 4358,
      "མཚོ་སྔོན་གསར་འག": 4359,
      "དེང་རབས་ཀྱི་": 4360,
      "་མ་གཏོགས་": 4361,
      "་ཞིན": 4362,
      "ཙུང་ཐུང": 4363,
      "་སྟོང་ཕྲག": 4364,
      "བརྗོད་བྱ་གཙོ་བོ": 4365,
      "ཁོང་ཚོའི་": 4366,
      "ན་པ": 4367,
      "རྩོམ་ཁུངས": 4368,
      "་བཏང་བའི་": 4369,
      "བརྗོད་དོན": 4370,
      "3000": 4371,
      "དགྲ": 4372,
      "མ་བུ": 4373,
      "་བརྐོས": 4374,
      "་སྔར་བཞིན": 4375,
      "སྡེ་བའི་": 4376,
      "id": 4377,
      "ྱུར་དྲ་བའི་འཕྲིན": 4378,
      "▁0$": 4379,
      "བདེ་འཇགས་ལ་": 4380,
      "གནང་བའི་": 4381,
      "་རྒྱ་བསྐྱེད": 4382,
      "་དེ་དག་གིས་": 4383,
      "་ཉིད་": 4384,
      "མཛད་པ": 4385,
      "སྟེང": 4386,
      "▁ཁོ་ཚོས་": 4387,
      "བསང": 4388,
      "འི་འཕྲིན་ལྟར་ན": 4389,
      "ལ་སླེབས་པའི་": 4390,
      "▁)(": 4391,
      "ཁྱིམ་བདག": 4392,
      "བརྡ་ཁྱབ": 4393,
      "་ལོངས་སུ་སྤྱོད": 4394,
      "ནད་རིགས": 4395,
      "་རྩེད": 4396,
      "་ཧྲིན": 4397,
      "ཡན་ལག་": 4398,
      "མི་རྣམས་": 4399,
      "་ཆེ་བ་དང་": 4400,
      "ལས་འཛིན་ལྷན་ཚོགས": 4401,
      "ཁོར་ཡུག་གི་": 4402,
      "མང": 4403,
      "་སྤང": 4404,
      "འཐུས་མིའི་": 4405,
      "་གཞན་པ": 4406,
      "་ཟུང་འབྲེལ": 4407,
      "ལེགས་སྐྱེས་འབུལ": 4408,
      "་མཉམ་སྤྱོད": 4409,
      "་ཁྲོད་དུ་": 4410,
      "▁ཟླ་བ": 4411,
      "་སྒྱུར་བཅོས": 4412,
      "【": 4413,
      "ཚོགས་འདུ་འཚོགས": 4414,
      "་ཞིག་ཡིན་པས་": 4415,
      "་རྫ": 4416,
      "དང་པོ": 4417,
      "དམག་འཐབ": 4418,
      "དྲི་བ": 4419,
      "་འཇགས": 4420,
      "སེམས་ཀྱི་": 4421,
      "55": 4422,
      "་ཅེས་པ": 4423,
      "་ཀྲོའུ": 4424,
      "་འདེད": 4425,
      "▁མཁའ་མཚོ་སྐྱིད": 4426,
      "མི་དམངས་ཚོགས་ཁང": 4427,
      "ས་ཡོམ": 4428,
      "་འཆར་འགོད": 4429,
      "ས་ན": 4430,
      "ར་ཞུགས": 4431,
      "དཔེ་མཚོན": 4432,
      "གསར་བརྗེ": 4433,
      "་རྒྱུ་ནི་": 4434,
      "་གཞན་ཞིག": 4435,
      "▁ལམ": 4436,
      "དོན་དུ་": 4437,
      "༔": 4438,
      "་བ་མ་ཟད": 4439,
      "▁ཁ་ཕྱོགས": 4440,
      "་བརྩོན": 4441,
      "དྲག་ཆས་ཉེན་རྟོག་": 4442,
      "གསར": 4443,
      "འཇོན་ཐང": 4444,
      "འི་རྒྱུན་ལས་": 4445,
      "ཡུན": 4446,
      "2010": 4447,
      "▁དུས": 4448,
      "་ངག་དབང": 4449,
      "ཝ": 4450,
      "་འཚོགས": 4451,
      "ཟིན་པ་དེ་": 4452,
      "་དྲ་བ": 4453,
      "ཆ་ཤས": 4454,
      "བོད་མི": 4455,
      "་བབ": 4456,
      "འདི་ནི་": 4457,
      "་ལ་རྒྱུས་ལོན": 4458,
      "▁གནས་སྤོ་": 4459,
      "སྣུམ": 4460,
      "་དེ་ལ": 4461,
      "དགེ་རྒན་": 4462,
      "ཕར": 4463,
      "▁གཅིག་ནི་": 4464,
      "་དང་ཆབས་ཅིག་": 4465,
      "ཀུན": 4466,
      "སྙན་ངག་པ": 4467,
      "་ཅན་དུ": 4468,
      "▁ཞེས": 4469,
      "དག": 4470,
      "སྡེ་ཁུལ་གྱི་": 4471,
      "་གཤེན": 4472,
      "་ཚྭ": 4473,
      "གྲུབ་པའི་": 4474,
      "▁ངོ་སྤྲོད་": 4475,
      "་མཆོག་གི་": 4476,
      "་སྐྱོད": 4477,
      "སྐུལ་འདེད་བཏང་ནས": 4478,
      "་འཛིན་པའི་": 4479,
      "ཐུགས་ཁུར་དང་": 4480,
      "་རང་གིས": 4481,
      "་ཀུ": 4482,
      "སྐོར་ཞིབ": 4483,
      "་པོ་": 4484,
      "་མི་དམངས་": 4485,
      "་རྡོག": 4486,
      "་འཛུགས་དགོས": 4487,
      "ཚོ": 4488,
      "་ཡོ": 4489,
      "སྐྱ": 4490,
      "་ཊི": 4491,
      "གྲོས་མོལ་": 4492,
      "་གེ": 4493,
      "འདས": 4494,
      "ཚོང་གཉེར": 4495,
      "་སྡེབ": 4496,
      "ཙམ་": 4497,
      "”(": 4498,
      "་གསལ་བ": 4499,
      "་སྟབས་": 4500,
      "གྲོ": 4501,
      "་སུ་གཏོང་བ": 4502,
      "སྔ་གཞུག་ཏུ་": 4503,
      "་ཉེན": 4504,
      "ནགས་ཚལ": 4505,
      "༡": 4506,
      "་པི": 4507,
      "ང་ལ": 4508,
      "སྟོད": 4509,
      "75": 4510,
      "གྲྭ": 4511,
      "་སླར་ཡང": 4512,
      "་ཐེངས་མང": 4513,
      "་འདོགས": 4514,
      "ཆོས་འབྱུང་": 4515,
      "བསོད་ནམས": 4516,
      "་མཐོ་བ": 4517,
      "▁འཕེལ་རྒྱས་ཀྱི་": 4518,
      "ཨོ་རྩལ་འགྲན་ཚོགས": 4519,
      "མདུན་ལམ": 4520,
      "ཐུགས་ཁུར": 4521,
      "ཕུ": 4522,
      "5000": 4523,
      "་ཏུང": 4524,
      "་འགྲེམ་སྟོན": 4525,
      "▁བུ": 4526,
      "་རིག་གནས་": 4527,
      "ངེས": 4528,
      "ཀྲུང་གོ་ཕྱོགས": 4529,
      "ཁྱབ་བསྒྲགས": 4530,
      "ia": 4531,
      "ཉམས་མྱོང་": 4532,
      "རྒྱུགས": 4533,
      "་སྐྱེས་པ": 4534,
      "འཚོ": 4535,
      "ངོ་མཚར": 4536,
      "་རྫི": 4537,
      "རིན་གོང་": 4538,
      "ྷ": 4539,
      "་ངེས་ཅན": 4540,
      "སྙིང་རྗེ": 4541,
      "་ཚད་མེད": 4542,
      "ཱི": 4543,
      "༤༠": 4544,
      "མྱོང་ཚོར": 4545,
      "ལྷག་བསམ": 4546,
      "ཁྱེད་ཀྱི་": 4547,
      "མི་ཉག": 4548,
      "དངུལ་གཏོང་": 4549,
      "་ཆོས་ཀྱི་": 4550,
      "་བཞིན་ཡོད་པ་རེད": 4551,
      "་སྐོར་ཞིག": 4552,
      "་ལས་ཁུངས": 4553,
      "མཛད་རྗེས": 4554,
      "རྡོ་རྗེ": 4555,
      "ol": 4556,
      "གྲགས་ཅན་": 4557,
      "་བྱང་ཆུབ": 4558,
      "་པ་དེས་": 4559,
      "་རྒྱལ་བ": 4560,
      "▁རིགས": 4561,
      "སྤོབས་པ": 4562,
      "་པ་ལས་": 4563,
      "ཉིན་དེར་": 4564,
      "་གཉིས་སུ": 4565,
      "▁)..(+": 4566,
      "མེ་སྐྱོན": 4567,
      "ཆུ་ཚད་མཐོ་རུ": 4568,
      "་ཆོག་པ": 4569,
      "་སུམ": 4570,
      "་ནམ་མཁའ": 4571,
      "བོད་རིག་པ་": 4572,
      "འི་འདུ་ཤེས": 4573,
      "དྲིལ་སྒྲོག": 4574,
      "་ཕན་ཚུན་": 4575,
      "་གསོད": 4576,
      "རབ་བྱུང": 4577,
      "་སྐྱོང་": 4578,
      "་ཁོངས": 4579,
      "་བསུ": 4580,
      "རྒྱུ་སྤུས": 4581,
      "▁ཕོ": 4582,
      "་འཁྱེར": 4583,
      "ཇེ": 4584,
      "་སྐལ": 4585,
      "མངོན": 4586,
      "བཀོད་འཛུགས་སྐྲུན": 4587,
      "སྲིད་གྲོས་སྐབས": 4588,
      "ཅུས": 4589,
      "་བདེ་བླག་ངང": 4590,
      "་བསྐྱར་སྟོན་": 4591,
      "བེ": 4592,
      "་ལྷ་ཁང": 4593,
      "་ལའང": 4594,
      "་སྤུ": 4595,
      "་མགྱོགས་མྱུར": 4596,
      "སྟོན་": 4597,
      "བདེ་སྐྱིད་ལྡན་པ": 4598,
      "་རགས་ཙམ": 4599,
      "ས་ཏེ": 4600,
      "་ཡིན་པར": 4601,
      "་གཅིག་མཐུན": 4602,
      "་སུའུ": 4603,
      "ཕྱིའི་": 4604,
      "གླིང་སྒྲུང": 4605,
      "དབྱིབས": 4606,
      "ད་ལོའི་": 4607,
      "འདོད": 4608,
      "རྒྱ་མཚོ": 4609,
      "སྤྲོ་སྣང": 4610,
      "སྒེར": 4611,
      "་སྔོན་པོ": 4612,
      "་གང་ཐུབ": 4613,
      "་ལ་ཞིབ་བཤེར": 4614,
      "་བཅུ་གཉིས་པའི་": 4615,
      "ཡོད་པའི་ཤོག་ངོས་": 4616,
      "ག་གི་": 4617,
      "གྱི": 4618,
      "▁དེ་རིང་": 4619,
      "ལསྦྲེལ་": 4620,
      "རྒྱ་བོད་": 4621,
      "སྐབས་དང་པོའི་": 4622,
      "མདུན་དུ་": 4623,
      "གཏན་འཇགས": 4624,
      "▁མཱ": 4625,
      "འཚོ་བ་": 4626,
      "སྤེལ་བའི་": 4627,
      "▁རྒྱལ་པོ": 4628,
      "མགྲོན་ཁང": 4629,
      "་མང་པོ་ཞིག་": 4630,
      "ཀླུ": 4631,
      "ལས་བཟོ": 4632,
      "68": 4633,
      "ཤོག་ངོས་རྣམས་": 4634,
      "མཚོན": 4635,
      "་ཁྲོན": 4636,
      "་སྣ་མང": 4637,
      "▁གཞི་རིམ་": 4638,
      "་ཚུལ་": 4639,
      "རྔ": 4640,
      "ཤུལ": 4641,
      "དཔེ་སྐྲུན་ཁང་གིས": 4642,
      "་ལེགས་འགྲུབ་བྱུང": 4643,
      "སྐུ་མགྲོན": 4644,
      "ཆབ་མདོ་གྲོང་ཁྱེར": 4645,
      "་སྔ་མ": 4646,
      "བསྟན": 4647,
      "ཡོད་པ་རེད": 4648,
      "མིག་ཆུ": 4649,
      "99": 4650,
      "་རྒྱུ་": 4651,
      "་ཕྱིན་ཡོད": 4652,
      "▁སྤྱི་ཟླ་": 4653,
      "▁ཁྱོན་ཡོངས་ནས་": 4654,
      "སྤྱིར་བཏང་གི་": 4655,
      "རིང": 4656,
      "སྒྲིག་གཞིའི་": 4657,
      "་འཚོགས་པ": 4658,
      "དཀྱིལ": 4659,
      "དབུལ": 4660,
      "་འཐག": 4661,
      "ཉེན་རྟོག་པ": 4662,
      "་དུ་འགྲོ": 4663,
      "་བརྩེགས": 4664,
      "སྒོར་དུང་ཕྱུར": 4665,
      "་འབུ": 4666,
      "ཡུལ་གྲུ": 4667,
      "་མེད་ན་": 4668,
      "ཁ་བ": 4669,
      "་བློ་གྲོས": 4670,
      "སྙན་གྲགས": 4671,
      "་དེ་རིགས": 4672,
      "བྱ་དགའི་": 4673,
      "་གཏོང་རྒྱུ་དང་": 4674,
      "་མང་པོ་": 4675,
      "བརྗེ་རེས": 4676,
      "དཔལ་ཡོན": 4677,
      "4": 4678,
      "བར་ཆད": 4679,
      "་གསར་འཛུགས": 4680,
      "་ལག་ལེན་མཐར་ཕྱིན": 4681,
      "་ཇི": 4682,
      "་ཕྱིན་པ": 4683,
      "་འགྲན": 4684,
      "Ta": 4685,
      "ཚང་འཛོམས་གྲོས་": 4686,
      "འགག་སྒྲོལ": 4687,
      "ཨ་ཁུ": 4688,
      "སྦྱིན་བདག": 4689,
      "▁བླ་མ": 4690,
      "དོ་སྣང": 4691,
      "་རིམ་བཞིན་": 4692,
      "གནས་སྐབས་": 4693,
      "པུའུ་ཡི་པུའུ་ཀྲང": 4694,
      "རང་བཞིན་དང་": 4695,
      "ཨུ": 4696,
      "གྲོས་འགོ": 4697,
      "་ལ་འགྱུར་ལྡོག": 4698,
      "གོམ་པ": 4699,
      "ངོ་རྒོལ": 4700,
      "་མཐར་ཕྱིན": 4701,
      "་འདུག་པ": 4702,
      "ཕུལ་བའི་": 4703,
      "་ཞིག་གིས": 4704,
      "600": 4705,
      "་བསགས": 4706,
      "༎": 4707,
      "༦": 4708,
      "▁སྦས་": 4709,
      "མངོན་གསལ་དོད་པོས": 4710,
      "འི་དབང་གིས་": 4711,
      "་སོན": 4712,
      "་གང་གི་": 4713,
      "་བྱེད་དགོས་ལ": 4714,
      "་རེག": 4715,
      "གིས": 4716,
      "་ཆགས་པའི་": 4717,
      "བཀོད་སྒྲིག་བྱས་པ": 4718,
      "སྦྲེལ་མཐུད": 4719,
      "་གདན": 4720,
      "ལས་དོན་སྤེལ": 4721,
      "་དབྱིབས": 4722,
      "་ནི་བོད་ཀྱི་": 4723,
      "་ཕྱོགས་ཡོངས་ནས་": 4724,
      "▁ལྷ་ས་གྲོང་ཁྱེར": 4725,
      "▁སྒྲ": 4726,
      "ཐིག": 4727,
      "མེས་པོ": 4728,
      "སྤྱི་བསྒྲགས": 4729,
      "ནུབ་ཕྱོགས་": 4730,
      ":18": 4731,
      "སྟོབས་ཤུགས་": 4732,
      "ས་ཞིང": 4733,
      "ཟམ་པ": 4734,
      "གྲི": 4735,
      "དཔྱད་ཞིབ་": 4736,
      "་དུང་ཕྱུར": 4737,
      "ཞོ": 4738,
      "་ལྔ་བརྒྱ": 4739,
      "ة": 4740,
      "འབྲེལ་ཡོད་སྡེ་ཁག": 4741,
      "དངོས་གནས་": 4742,
      "རོང་འབྲོག་": 4743,
      "་རྒྱུན་འཛིན": 4744,
      "ཕུན་སུམ་ཚོགས་པའི": 4745,
      "▁རང་སྐྱོང་ལྗོངས": 4746,
      "▁མི་དམངས་ཀྱི་": 4747,
      "་ཆེར": 4748,
      "འདུན་པ": 4749,
      "ཟ་ཁང": 4750,
      "འབྲེལ་ཡོད་ཀྱི་": 4751,
      "་རིང་གི་": 4752,
      "སྐབས་དེའི་": 4753,
      "་སྦྲེལ": 4754,
      "་དམའ་བ": 4755,
      "འཕྲིན་ལས": 4756,
      "མན": 4757,
      "ta": 4758,
      "་ཡོང་": 4759,
      "འཐབ": 4760,
      "་ཕུལ་བ": 4761,
      "བོད་ཀྱི་ལོ་རྒྱུས": 4762,
      "ཡོ": 4763,
      "་ཡོད་མོད": 4764,
      "▁བདེ་འཇགས་": 4765,
      "74": 4766,
      "རྣལ་འབྱོར": 4767,
      "▁དེང་སྐབས་": 4768,
      "ས་མི": 4769,
      "འབྲེལ་ཡོད་ནང་དོན": 4770,
      "▁ལ": 4771,
      "ཕག": 4772,
      "་གྲོས་ཚོགས": 4773,
      "་ནམ་ཡང": 4774,
      "▁ཚན་རྩལ་སློབ་གསོ": 4775,
      "་སྔོག་འདོན": 4776,
      "ས་ཞིང་": 4777,
      "་འབངས": 4778,
      "སྟོབས": 4779,
      "་གཙོ་བོ་ནི་": 4780,
      "་ལོའི་": 4781,
      "་དུ་གཏོང་བ": 4782,
      "་སྤེལ་ནས་": 4783,
      "འཕེལ་ཕྱོགས": 4784,
      "་ཀྱི་རྣམ་པ": 4785,
      "་ཟིན་པ": 4786,
      "རྣམ་གྲངས་ཀྱི་": 4787,
      "་དབར་": 4788,
      "ནོར་བུ": 4789,
      "་པོས་": 4790,
      "ཐིན": 4791,
      "རླབས་ཆེན་གྱི་": 4792,
      "་ལས་གྲུབ་པའི་": 4793,
      "དགེ་སློབ": 4794,
      "མཐོ་སྒང་གི་": 4795,
      "་ཀྲིན": 4796,
      "བདག་གཉེར": 4797,
      "ལེགས": 4798,
      "་སྣོད": 4799,
      "རྨང་གཞིའི་སྟེང་": 4800,
      "་ཟེར་བའི་": 4801,
      "སྤང": 4802,
      "་ཕྲ་མོ": 4803,
      "བརྙན": 4804,
      "ཞུ་གཏུག": 4805,
      "་ཆོས་ལུཊ": 4806,
      "བླ་ན་མེད་པའི་": 4807,
      "རྣམ": 4808,
      "་ཆེ་རུ": 4809,
      "མཁོ": 4810,
      "བཞུགས": 4811,
      "བསྐྲུན": 4812,
      "རིམ": 4813,
      "་ལྟ་བུར": 4814,
      "དོ་དམ་གྱི་": 4815,
      "འཆམ་མཐུན": 4816,
      "་མངགས": 4817,
      "གཉེན་སྒྲིག": 4818,
      "ཚོང་ལས་": 4819,
      "་ཚོ་": 4820,
      "འཕུར": 4821,
      "་མགོ་བརྩམས": 4822,
      "་ཐོན་ཡོད": 4823,
      "སངས་རྒྱས་": 4824,
      "ཨུ་རུ་སིའི་": 4825,
      "རིམ་རྩིས་བྱས་ན་": 4826,
      "ངང": 4827,
      "ཚང་མར་": 4828,
      "6": 4829,
      "གཡུང་དྲུང་བོན": 4830,
      "е": 4831,
      "ཁྱིམ་གྱི་": 4832,
      "མ་པ": 4833,
      "དཔུང": 4834,
      "ད་དུང": 4835,
      "་སྒྱུར་བཀོད": 4836,
      "ཚན་རྩལ": 4837,
      "་རམ": 4838,
      "གསོ་རིག་བོད་སྨན": 4839,
      "འི་ཁྲོད": 4840,
      "བདག་སྐྱོང": 4841,
      "དོ་ཁུར": 4842,
      "འཁྲུངས": 4843,
      "ཚོགས་": 4844,
      "་ཕེ": 4845,
      "ན་གྱིས་": 4846,
      "▁དམིཊ་བསལ་": 4847,
      "གནའ་དེང་མི་སྣ": 4848,
      "་བྱེད་པའི་བྱ་བ": 4849,
      "རྩེ": 4850,
      "Re": 4851,
      "ཀྲུའུ་ཞི་གཞོན་པ་": 4852,
      "་ཐན": 4853,
      "བཙུན་མོ": 4854,
      "་ཏོག": 4855,
      "fr": 4856,
      "སེམས་ཤུགས": 4857,
      "་བཀུར": 4858,
      "ཁུངས": 4859,
      "གུར": 4860,
      "ལས་རིགས་ཁག་གི་": 4861,
      "བཙན་པོའི་": 4862,
      "ཡི་གེའི་": 4863,
      "ཉིན་གྱི་ཕྱི་དྲོར": 4864,
      "་འཐོབ": 4865,
      "བོད་རིགས་ས་ཁུལ": 4866,
      "་གཅེས": 4867,
      "བཤད་རྒྱུར་": 4868,
      "དབུགས": 4869,
      "རྒྱལ་ཚོགས་ཀྱི་": 4870,
      "་དྭངས": 4871,
      "དཀའ་སྤྱད་": 4872,
      "▁ནད": 4873,
      "ལོ་ལྔའི་འཆར་གཞི": 4874,
      "་ཁྲུན": 4875,
      "བསྐྱོད": 4876,
      "ལེགས་བཤད": 4877,
      "་གནམ": 4878,
      "བློན་པོ": 4879,
      "རྒྱལ་དམངས་": 4880,
      "ཞེ": 4881,
      "▁ཞིང་ཆེན་ཏང་ཨུའི": 4882,
      "་དྲོ": 4883,
      "་བཀོད་སྒྲིག་བྱས": 4884,
      "་དང་མཉམ་དུ": 4885,
      "་སྤྱོད་": 4886,
      "མཚོ་སྔོན": 4887,
      "་དཀོན་མཆོག": 4888,
      "སྐོར་གྱི་བསམ་འཆར": 4889,
      "ཀུང་སི": 4890,
      "་བྱ་རྒྱུ་ནི་": 4891,
      "འི་སྐབས་སུ་": 4892,
      "འགན་འཁུར": 4893,
      "་མཐོ་ཤོས": 4894,
      "འར": 4895,
      "54": 4896,
      "་དང་བསྡུར་ན་": 4897,
      "བྱར་རྩྭ་དགུན་འབུ": 4898,
      "་འབའ་ཞིག": 4899,
      "་འགུག": 4900,
      "ས་ཁོངས་": 4901,
      "་ལེགས་པ": 4902,
      "▁རྒྱུས་ལོན་": 4903,
      "་བསྣན": 4904,
      "འཆམ་མཐུན་": 4905,
      "་རན": 4906,
      "ཐོ་འགོད་": 4907,
      "89": 4908,
      "གུང་ཁྲན་ཏང་གི་": 4909,
      "དགོན་སྡེའི་": 4910,
      "ཚོགས་འདུའི་ཐོག་": 4911,
      "ཐོན་རྫས་ཀྱི་": 4912,
      "ཚན་རིག": 4913,
      "་ཉེས": 4914,
      "་བརྗེ་རེས": 4915,
      "བྱེ": 4916,
      "ཁུ": 4917,
      "▁...": 4918,
      "སྐྲུན": 4919,
      "གློ": 4920,
      "་འཕེལ་རྒྱས་ཀྱི་": 4921,
      "བྱུང": 4922,
      "ཀྱི་ཀྲུའུ་ཞི་": 4923,
      "སྤྲོ་སེམས་འཁོལ་བ": 4924,
      "རིན་ཐང་ལྟ་བ": 4925,
      "▁ཁྱད་པར་དུ་": 4926,
      "་མྱོང་": 4927,
      "་སློབ་གསོའི་": 4928,
      "དམ་བཅའ": 4929,
      "འགུལ": 4930,
      "▁མི་དམངས་དྲ་བ": 4931,
      "རིག་དངོས": 4932,
      "གཏན་འཇགས་": 4933,
      "་ཤིག་རེད": 4934,
      "་བསྐྱར": 4935,
      "▁བོད": 4936,
      "▁སྒྱུར་བཅོས་": 4937,
      "རྒྱུས་ལོན": 4938,
      "ཟབ": 4939,
      "མིང་ཐོ": 4940,
      "དགོན": 4941,
      "67": 4942,
      "ལྟ་རྟོག": 4943,
      "ོང": 4944,
      "སྔར": 4945,
      "་ལས་གཞན": 4946,
      "་བཞི་བ": 4947,
      "མཐུན་སྒྲིལ་གྱི་": 4948,
      "་འཛུགས་སྐྲུན་ལ་": 4949,
      "བཀྲ་ཤིས": 4950,
      "་ལ་སོགས": 4951,
      "རྒྱུན་ལས་ཨུ་ཡོན་": 4952,
      "▁གསེར": 4953,
      "་ཉལ": 4954,
      "་རྩད་གཅོད": 4955,
      "འཁོར་རྒྱུག་": 4956,
      "མི་སྒེར": 4957,
      "ཡིག་འབྲུ": 4958,
      "་ཀྲང་གཞོན་པ": 4959,
      "ཚྭ": 4960,
      "Q": 4961,
      "་དེ་དག་ལ་": 4962,
      "འཕྲུལ་ཆས": 4963,
      "དད་པ": 4964,
      "2011": 4965,
      "་འཇིགས་མེད": 4966,
      "སྐད་རིགས": 4967,
      "་ཚུན་": 4968,
      "་གཅིག་ཀྱང": 4969,
      "འི་འབྲེལ་བ": 4970,
      "་འདི་འདྲ": 4971,
      "་ཕུག": 4972,
      "ཕྱི་ལོ": 4973,
      "་འདི་ལྟར": 4974,
      "གསེར་གྱི་": 4975,
      "▁༢༠༡༦": 4976,
      "འགྲོ་སོང": 4977,
      "་ལྡེ": 4978,
      "X": 4979,
      "རླངས་འཁོར་གྱི་": 4980,
      "་ཡག་ཤོས": 4981,
      "དམངས་ཕན་": 4982,
      "འི་ངང": 4983,
      "འབྲིང་རིམ་": 4984,
      "▁ལྷ་སའི་": 4985,
      "་ལས་ཀྱང་": 4986,
      "ལས་ཁུངས་": 4987,
      "འདོད་བློ": 4988,
      "འཐུས་སྒོ་ཚང་དུ": 4989,
      "་དང་མཐུན": 4990,
      "མ་དངུལ་སྒོར་ཁྲི": 4991,
      "་ཚད་གཞི": 4992,
      "ཉེན": 4993,
      "རྩྭ་ཐང་": 4994,
      "་བློན": 4995,
      "8": 4996,
      "འི་གནས": 4997,
      "་ཅི་ཞིག": 4998,
      "་བརྒྱད་ཅུ": 4999,
      "དབྱངས": 5000,
      "ཡིག་ཚགས་": 5001,
      "号": 5002,
      "་ཐོག་ཏུ": 5003,
      "རྩམ་པ": 5004,
      "་མ་ཐག་": 5005,
      "་བཀོད་ཡོད": 5006,
      "་ཚགས": 5007,
      "འི་བར": 5008,
      "སྟེང་དུ་": 5009,
      "་སྨིན": 5010,
      "ལུགས": 5011,
      "་སྒོས": 5012,
      "▁ལྔ": 5013,
      "འབད་པ": 5014,
      "ཐོག་མ": 5015,
      "3": 5016,
      "དེ་ལ་": 5017,
      "་རིན་པོ་ཆེའི་": 5018,
      "གང་ཟག": 5019,
      "སྣོད་བཅུད": 5020,
      "དགའ་བ": 5021,
      "་ཅིག་ཡིན": 5022,
      "་ཉེར་ལྔ": 5023,
      "་རི་བོ": 5024,
      "▁2010": 5025,
      "རོ": 5026,
      "རྫས": 5027,
      "ཐེ": 5028,
      "ལོ་ན": 5029,
      "་མཐོར་འདེགས་སུ": 5030,
      "འཚོལ་ཞིབ": 5031,
      "的": 5032,
      "གཏིང": 5033,
      "་བཅོས་སྐྱོང": 5034,
      "འབད་འབུངས": 5035,
      "སྔོན་རྩིས་": 5036,
      "་འདོད་པ": 5037,
      "ཁོ་མོ": 5038,
      "དམངས་ཁྲོད་ཀྱི་": 5039,
      "་བྱེད་པ་བཅས": 5040,
      "རྩ་འཛུགས་དང་": 5041,
      "་དེ་ནི": 5042,
      "་འགྲོ་རྒྱུར་": 5043,
      "་གྲི": 5044,
      "གྲོང་མི་": 5045,
      "་ཧུ": 5046,
      "སྟོན་པ": 5047,
      "ཏང་སྲོལ་སྲིད་གཙང": 5048,
      "སློབ་དེབ": 5049,
      "མགྲིན་ཚབ་པ": 5050,
      "་སྐྱོ": 5051,
      "རྒྱལ་པོ་": 5052,
      "གོང་འཕེལ་གྱི་": 5053,
      "▁འཛམ་གླིང་གི་": 5054,
      "བརྟན་བརླིང": 5055,
      "སྲིད་ཇུས་ལག་བསྟར": 5056,
      "བཟའ་ཟླ": 5057,
      "་བརྩམས": 5058,
      "ར་བརྟེན": 5059,
      "་ཅེས་བཤད": 5060,
      "བྱ་གཞག་": 5061,
      "་བྱས་ཀྱང་": 5062,
      "མང་ཚོགས་ཚོས་": 5063,
      "མགྱོགས་མྱུར་": 5064,
      "་འགྱུར་བ": 5065,
      "་དང་མ": 5066,
      "་ལ་ངོས་འཛིན": 5067,
      "མནའ་འབྲེལ་གྱི་": 5068,
      "སྟོན": 5069,
      "་ལོངས་སྤྱོད": 5070,
      "མི་སེར": 5071,
      "...": 5072,
      "་ཆུའི་": 5073,
      "▁གཙོ་བོ་": 5074,
      "་པ་དེ": 5075,
      "་སྐབས་སུ་": 5076,
      "་བོད": 5077,
      "་མོད་": 5078,
      "འདེམས་བསྐོ": 5079,
      "་བྱེད་ཆེད": 5080,
      "་གསུངས་པ": 5081,
      "དྲ་ཐོག་": 5082,
      "རུ་": 5083,
      "་འཁྲབ་སྟོན": 5084,
      "་མི་ཐུབ་པ": 5085,
      "ཏང་དང་": 5086,
      "97": 5087,
      "རྭ": 5088,
      "མཉམ་འབྲེལ": 5089,
      "ཁ་གསབ་རོགས་དངུལ": 5090,
      "དབྱིན་ཇིའི་": 5091,
      "གྱང": 5092,
      "དྲི": 5093,
      "སྡིག": 5094,
      "་མཐོང་ཐུབ": 5095,
      "་གྲོ": 5096,
      "▁བདག": 5097,
      "ལག་ལེན་མཐར་ཕྱིན": 5098,
      "ལྟོ": 5099,
      "་ལས་དོན་གྱི་": 5100,
      "་ངེས་ཅན་ཞིག": 5101,
      "་ངམ": 5102,
      "ཀྲུང་གོ་བོད་ཀྱི་": 5103,
      "་མཐོ་རུ་གཏོང་བ": 5104,
      "་བ་ཞིག": 5105,
      "▁དབུལ་སྐྱོར་": 5106,
      "་བསྩལ": 5107,
      "ལྷག་བསམ་རྣམ་དག": 5108,
      "་མིན་པ": 5109,
      "་ཡག་པོ་ཞིག": 5110,
      "གཉིད": 5111,
      "་ལྔ་བ": 5112,
      "་ལས་གྲྭ": 5113,
      "རྗེས་འཇུག": 5114,
      "་ཡོད་པ་དེ": 5115,
      "་ཁས་ལེན": 5116,
      "ནོར་འཁྲུལ": 5117,
      "▁ཉི་མ": 5118,
      "འཁོར་སྐྱོད་": 5119,
      "གཞི་འཛིན་ས": 5120,
      "к": 5121,
      "འཇིག་རྟེན་གྱི་": 5122,
      "་དྷ": 5123,
      "་སྐྱུར": 5124,
      "ཨ་ཧྥེ་རི་ཁའི་": 5125,
      "▁ད་ཐེངས་ཀྱི་": 5126,
      "་བྱེད་ཀྱིན་ཡོད": 5127,
      "་བརྟག་དཔྱད": 5128,
      "་ཐོབ་པ་དང་": 5129,
      "་ལིའུ": 5130,
      "འཚོ་གནས": 5131,
      "སྲུང་སྐྱོབ་ཀྱི་": 5132,
      "་དགྲ": 5133,
      "ལོ་ཏོག": 5134,
      "་འདབ": 5135,
      "བཀོད་སྒྲིག་": 5136,
      "གློག་དྲ": 5137,
      "་མགྱོགས་པོ": 5138,
      "་སྟོན་པའི་": 5139,
      "དབུས་གཙང": 5140,
      "ཚན་རིག་ཞིབ་འཇུག": 5141,
      "▁བློ": 5142,
      "་རྨ": 5143,
      "་ཞེན": 5144,
      "ཡོང": 5145,
      "ཡིག་ཚང": 5146,
      "་ཛ": 5147,
      "་བསྐྲུན་རྒྱུ": 5148,
      "ཕྱོགས་སུ": 5149,
      "རྦ": 5150,
      "་བྱས་ཐོག་": 5151,
      "ཉིན་རེར་": 5152,
      "་རིམ་པའི་": 5153,
      "སྐུལ་ལྕག": 5154,
      "66": 5155,
      "་ཚོགས་པས་": 5156,
      "རིམ་པ་སོ་སོའི་": 5157,
      "་ཙམ་གྱི་": 5158,
      "་ཏུའུ": 5159,
      "་ཕྱོགས་བསྒྲིགས": 5160,
      "་བཟོ་བ་དང་": 5161,
      "ཡོང་འབབ་སྒོར་ཁྲི": 5162,
      "བཅུ་དགུ་པ": 5163,
      "མཁའ་འགྲུལ་": 5164,
      "་རང་ཉིད": 5165,
      "ལུང་བསྟན": 5166,
      "་ཚང་": 5167,
      "ཏང་ཀྲི་པུའུ": 5168,
      "ཀུ": 5169,
      "་མངོན་ཡོད": 5170,
      "གསར་དུ་": 5171,
      "་དམའ": 5172,
      "་སྐོར་": 5173,
      "འཛད་སྤྱོད": 5174,
      "་རྩ་བ་ནས": 5175,
      "▁ད་ལོར་": 5176,
      "་སྒྲོལ": 5177,
      "གཉེན་ཉེ": 5178,
      "58": 5179,
      "དངོས་ཡོད་": 5180,
      "ཉིན་གྱི་སྔ་དྲོ་": 5181,
      "ད་གཟོད་": 5182,
      "་ཉིས": 5183,
      "ཚོགས་ཆེན་": 5184,
      "ཕུང་པོ": 5185,
      "་ཐོན་སྐྱེད": 5186,
      "་ཡོད་ན": 5187,
      "གླ་ཕོགས": 5188,
      "ཕྱི་": 5189,
      "བཅུ": 5190,
      "ཞལ་འདེབས": 5191,
      "ཝེ": 5192,
      "བློ་བཟང་རྒྱལ་མཚན": 5193,
      "་ལ་སྲུང་སྐྱོང": 5194,
      "་བྱེད་ཐུབ་པ": 5195,
      "▁ཚེ་མཁར་རྒྱལ": 5196,
      "འཛམ་གླིང": 5197,
      "ཉམས་ལེན": 5198,
      "78": 5199,
      "རི་མོའི་": 5200,
      "95": 5201,
      "་བདེ་བ": 5202,
      "་གྲང": 5203,
      "་འཐུས་ཚང་དུ་བཏང": 5204,
      "དངུལ་ཁང": 5205,
      "མི་དམངས་འཐུས་མི": 5206,
      "་ཚུད་པའི་": 5207,
      "ཟ་མ": 5208,
      "་མདངས": 5209,
      "གནས་ཚུལ་དང་": 5210,
      "ལ་སྐུལ་འདེད་གཏོང": 5211,
      "་ཁྱབ་བསྒྲགས་བྱས": 5212,
      "་ཁག་ཏུ་": 5213,
      "གཞིས་རྩེ": 5214,
      "ཤེས་ལྡན་མི་སྣའི་": 5215,
      "འགན་བཅོལ": 5216,
      "འི་ཁྲོད་ཀྱི་": 5217,
      "57": 5218,
      "0.9": 5219,
      "་པ་བཅས་ཀྱི་": 5220,
      "་ཐབས་མེད": 5221,
      "་མཉམ་འབྲེལ་": 5222,
      "་བྱུང་སྟེ་": 5223,
      "bo": 5224,
      "སྲོལ་རྒྱུན": 5225,
      "འབྲུ": 5226,
      "་དཔལ་འབྱོར་": 5227,
      "ཟིན་པའི་": 5228,
      "དམག་དཔོན": 5229,
      "མཚོ་སྔོན་པོ": 5230,
      "མངའ་ཁོངས": 5231,
      "འོག": 5232,
      "་བསྡུ་ལེན": 5233,
      "ཚོགས་འདུ་བསྡུས": 5234,
      "་ལུགས་ཀྱི་": 5235,
      "ت": 5236,
      "མཐོ་རིམ་སློབ་གྲྭ": 5237,
      "རིགས་ཁག་གི་": 5238,
      "་པ་ན": 5239,
      "ཁོངས་གཏོགས་ཀྱི་": 5240,
      "་ཀྲུང་": 5241,
      "མཚོན་ཆ": 5242,
      "མཆོག": 5243,
      "སྐབས་དེར་": 5244,
      "་སྲོལ་ཡོད": 5245,
      "ཉི": 5246,
      "53": 5247,
      "་པ་ཞིག་ཡིན": 5248,
      "་བ་ཡིན": 5249,
      "ل": 5250,
      "་ལེགས་སྒྲུབ": 5251,
      "བཀྲ་ཤིས་": 5252,
      "་གཉན": 5253,
      "རང་བྱུང་གི་": 5254,
      "མཐོ་ཚད": 5255,
      "རྒྱ་ཆེ་བའི་": 5256,
      "ཁ་བཏགས": 5257,
      "ཆེ་བ": 5258,
      "་མེད་ཀྱང་": 5259,
      "ནན": 5260,
      "སྤུན་ཟླ": 5261,
      "་སློབ་གསོ": 5262,
      "མཚམས་སྦྱོར": 5263,
      "དགག": 5264,
      "ལྟད་མོ་བ": 5265,
      "ནང་ཁུལ་གྱི་": 5266,
      "་བཅས་བྱས་ནས": 5267,
      "གྲལ": 5268,
      "ལས་བཟོ་བ": 5269,
      "་མེད་ལ": 5270,
      "་བྱས་པ་ཡིན": 5271,
      "་སྣང་བ": 5272,
      "ཏང་ཡོན་གྱི་": 5273,
      "ཚུར": 5274,
      "བཟོ་བཀོད": 5275,
      "41": 5276,
      "གྲོགས": 5277,
      "་སྙིང་པོ": 5278,
      "དཔྱད་བརྗོད": 5279,
      "སྐྱེ་དངོས": 5280,
      "་བྱས་ཐོག": 5281,
      "་ཅོ": 5282,
      "སྒོ་ནས་": 5283,
      "ཁ་བརྡ": 5284,
      "་གཏོང་": 5285,
      "▁ཞིང་ཆེན་ཡོངས": 5286,
      "▁ལུས": 5287,
      "སློབ་མས་": 5288,
      "ཞི་བདེ་དང་": 5289,
      "དཔོན": 5290,
      "▁དེང་རབས་": 5291,
      "གློག་འཕྲིན་": 5292,
      "་པར་བརྟེན་": 5293,
      "0.7": 5294,
      "འགྲེམས་ཚོགས": 5295,
      "ཉལ": 5296,
      "་མི་ཐེངས་ཁྲི་": 5297,
      "▁མགོ": 5298,
      "་འཁོད": 5299,
      "ར་དམིགས་ནས་": 5300,
      "གས་དང་": 5301,
      "་བྱེད་སའི་": 5302,
      "ཉིན་ལྟར་": 5303,
      "་མེད་ཅིང་": 5304,
      "དུས་ཚོད་": 5305,
      "fi": 5306,
      "འི་གྲོས་ཚོགས": 5307,
      "ཕོ་ཉ": 5308,
      "བོད་ཀྱི་དྲ་བ": 5309,
      "ཐེབས་རྩ": 5310,
      "གྲོང་ལྷན": 5311,
      "མཉམ་སྡེབ་": 5312,
      "བོད་མིའི་": 5313,
      "གནས་ཡུལ": 5314,
      "་གྲོང་ཁྱེར་གྱིས་": 5315,
      "ཕན་ཚུན་ལ་": 5316,
      "མཁའ་ལམ": 5317,
      "་བལྟ": 5318,
      "་རེ་རེ་བཞིན": 5319,
      "འགལ་ཟླ": 5320,
      "རྒན་གསོའི་": 5321,
      "་ཁ་གསབ": 5322,
      "བྱས": 5323,
      "་ཁྱོན་ཡོངས་ནས་": 5324,
      "▁དེ་ཡང": 5325,
      "་བཞེད": 5326,
      "་སད": 5327,
      "མཛེས་སྡུག": 5328,
      "་ཡིད་ལ": 5330,
      "འཕེལ": 5331,
      "ཚོང་རྟགས": 5332,
      "་རྫོང་དུ་": 5333,
      "▁ཁོའི་": 5334,
      "▁ད་ལྟའི་": 5335,
      "་མཐའ་འཁྱོངས་དང་": 5336,
      "་ཞེ་ན": 5337,
      "་མྱོང་བའི་": 5338,
      "སྤྱན": 5339,
      "་གྱི་རྣམ་པ": 5340,
      "རྟག་ཏུ་": 5341,
      "ཚད་བརྒལ": 5342,
      "དགུ": 5343,
      "བཀོད་སྒྲིག་བྱས": 5344,
      "གལ་ཏེ་": 5345,
      "་འབྲི་བ": 5346,
      "ལེ": 5347,
      "སྤུས་རྟགས": 5348,
      "་པ་སོགས་ཀྱི་": 5349,
      "▁----": 5350,
      "བསྡུར་ཚད": 5351,
      "སྦ": 5352,
      "ཟ": 5353,
      "བོད་ཀྱི་རིག་གནས": 5354,
      "བཏང་བ": 5355,
      "་འགན་སྲུང": 5356,
      "ངན": 5357,
      "མི་ལོ": 5358,
      "མཉམ་ལས་ལ་": 5359,
      "རྒྱལ་པོའི་": 5360,
      "་སྒོར་ཁྲི": 5361,
      "▁༤": 5362,
      "རྨང་གཞིའི་ཐོག་": 5363,
      "9%": 5364,
      "▁སྨན": 5365,
      "་པའི་གནས་ཚུལ": 5366,
      "ཚོགས་གཙོ": 5367,
      "ཞི་བདེ": 5368,
      "དྲི་མ": 5369,
      "་ཧྲུའུ": 5370,
      "ཡུལ་ཤུལ": 5371,
      "་བཅས་དང་": 5372,
      "ཡུལ་སྐོར་གྱི་": 5373,
      "་ཤུ": 5374,
      "མིག་སྔའི་": 5375,
      "འདི་ལོ་": 5376,
      "་ཡོན་ཏན": 5377,
      "སྐེ": 5378,
      "ཇེ་དྲག་ཏུ་གཏོང་བ": 5379,
      "རྒྱ་གར": 5380,
      "རིན": 5381,
      "སོ་སོའི་": 5382,
      "་རྡོར": 5383,
      "ང་བ": 5384,
      "་བཙན་པོ": 5385,
      "བལྟས་ན": 5386,
      "س": 5387,
      "་འོངས": 5388,
      "སེམས་ཅན": 5389,
      "་སྐྱེ་བ": 5390,
      "གཡུ": 5391,
      "སྡུག": 5392,
      "་འདེགས": 5393,
      "་ངེས་ཡིན": 5394,
      "་བརྒྱུད་དེ": 5395,
      "འདེམས": 5396,
      "་ཕྱོགས་སུ": 5397,
      "་པད་མ": 5398,
      "ལུས་ཀྱི་": 5399,
      "་ཇི་བཞིན": 5400,
      "▁ཕན་ཚུན་": 5401,
      "རིགས་ཀྱི་": 5402,
      "་འཕྲུལ": 5403,
      "་འཇུ": 5404,
      "སྲང་ལམ": 5405,
      "རྒྱལ་ཁ": 5406,
      "ཚོགས་མི": 5407,
      "ཐད་ལ་": 5408,
      "མལ": 5409,
      "དབྱར": 5410,
      "ཁྲི་": 5411,
      "ཚོང་ཟོག": 5412,
      "བཀོད་སྒྲིག་དང་": 5413,
      "л": 5414,
      "52": 5415,
      "་ཟི": 5416,
      "སྦྲེལ": 5417,
      "་བྱས་པ་ལྟར་ན": 5418,
      "འཁྲབ": 5419,
      "་གྲུ་བཞི": 5420,
      "་བརྟག": 5421,
      "་གཞན་གྱི་": 5422,
      "་ཆེན་པོ་ཡོད": 5423,
      "▁རྒྱལ་ཁབ་ཀྱིས་": 5424,
      "ཁྱོན་ཡོངས་ཀྱི་": 5425,
      "am": 5426,
      "ི་": 5427,
      "་ལྕེ": 5428,
      "འགྲན": 5429,
      "བརྡ་སྤྲོད": 5430,
      "་ལྷ་སར": 5431,
      "་ས་ཚིགས": 5432,
      "རྒྱུན་དུ་": 5433,
      "སྤྱི་": 5434,
      "་གཉེར་བ": 5435,
      "བྱ་བའི་སྙན་ཞུ": 5436,
      "་ཞིབ་བཤེར": 5437,
      "▁ཡུལ་སྐོར་": 5438,
      "▁དགེ་རྒན": 5439,
      "འཐུང་ཆུའི་": 5440,
      "▁བྱིས་པ": 5441,
      "ལོ་གསུམ": 5442,
      "ེའུ": 5443,
      "་ཅི་རིགས": 5444,
      "་མུའུ་": 5445,
      "▁སློབ་མ": 5446,
      "དབང་པོ": 5447,
      "དེང་རབས་ཅན": 5448,
      "མདོ་སྨད་": 5449,
      "རྐང་པ": 5450,
      "འི་དུས": 5451,
      "▁ཡུལ": 5452,
      "འགྲམ": 5453,
      "་བྱས་པར་མ་ཟད": 5454,
      "སྤུས་ཚད་": 5455,
      "▁ཀུན": 5456,
      "་བསྟུན": 5457,
      "མགྲོན་པོ": 5458,
      "བོད་རིགས་ཀྱི་": 5459,
      "▁ཞིན་ཧྭ་གསར་འགྱུ": 5460,
      "་དང་བསྟུན": 5461,
      "མ་ཡིག": 5462,
      "་ལྡན་ཞིང་": 5463,
      "སྤ་སེ": 5464,
      "གློག་ཤུགས་": 5465,
      "ཤེས་རྟོགས་བྱུང་བ": 5466,
      "རྒྱལ་བ": 5467,
      "ཁོ་ཚོ": 5468,
      "་པའམ": 5469,
      "▁དམངས་འཚོ": 5470,
      "ཡེ་ཤེས": 5471,
      "་རྣམས་དང་": 5472,
      "གཞོན་ནུ": 5473,
      "འདྲ་མཉམ": 5474,
      "་ཀྱིན་ཡོད": 5475,
      "མཚོ་ལྷོ་བོད་རིག": 5476,
      "ཆུའི་": 5477,
      "་ལ་མཚོན་ན": 5478,
      "ཞི་མཐུན་": 5479,
      "དབང་པོ་སྐྱོན་ཅན": 5480,
      "འཕྲོད་བསྟེན་དང་": 5481,
      "备": 5482,
      "་གཉིས་ནི་": 5483,
      "51": 5484,
      "ཡུལ་མི": 5485,
      "དམིགས་འབེན་": 5486,
      "▁ཡིན་ཡང་": 5487,
      "མང་ཚོགས་དང་": 5488,
      "་དྲང": 5489,
      "▁ལྷག་པར་": 5490,
      "བཟང": 5491,
      "▁ས་ཁུལ": 5492,
      "རྗེས་ལུས": 5493,
      "་རལ": 5494,
      "་རྒྱག་པའི་": 5495,
      "་གཞོན": 5496,
      "པོད": 5497,
      "་ལ་གཞིགས་ན": 5498,
      "ཁྲོད་ནས་": 5499,
      "་སྒྱུ་རྩལ": 5500,
      "བོད་རིགས": 5501,
      "ཡན་གྱི་": 5502,
      "་ཆིང": 5503,
      "▁མཐར་": 5504,
      "བོད་སྐད་": 5505,
      "་བརྗེ": 5506,
      "ར་གྱུར་པ": 5507,
      "་རྒྱལ་ཁབ": 5508,
      "རིམ་གྱིས་": 5509,
      "་དང་མཚུངས": 5510,
      "་ཕུན་སུམ་ཚོགས་པོ": 5511,
      "་དར་བ": 5512,
      "64": 5513,
      "་ལྟེ་གནས་ཀྱི་": 5514,
      "་བཤམས": 5515,
      "ཁྱེད": 5516,
      "གྲོང་གསེབ": 5517,
      "་འཐུས": 5518,
      "ཏང་རྩ་འཛུགས": 5519,
      "59": 5520,
      "མཐར་": 5521,
      "་ཀྲིག": 5522,
      "གནའ་ཤུལ": 5523,
      "༼ཡིག་གཟུགས་ཀྱི་": 5524,
      "འཕྲེད": 5525,
      "གཞུང་ལས་ཁང": 5526,
      "ནག་ཉེས": 5527,
      "ངོས་ནས་": 5528,
      "དབུལ་སྐྱོར་གྱི་": 5529,
      "ཁྲིམས་འཛུགས་": 5530,
      "▁ཁེ་ལས": 5531,
      "ས་མཚམས": 5532,
      "་ཕམ": 5533,
      "་བལྟས": 5534,
      "འི་དགོངས་དོན་ལ": 5535,
      "་དང་ཟུང་འབྲེལ": 5536,
      "0.4": 5537,
      "གཙོད": 5538,
      "དངོས་ཟོག་": 5539,
      "མཛད་སྒོར་ཞུགས": 5540,
      "་སྒ": 5541,
      "རྩ་ཆེའི་": 5542,
      "་ཡིན་ཡང་": 5543,
      "་ཁག་ལ་": 5544,
      "2": 5545,
      "་ཞིག་ཏུ་": 5546,
      "་སྦྱོང་བརྡར": 5547,
      "་ཡོད་པ་སྟེ": 5548,
      "ར་གྱུར་ཡོད": 5549,
      "ཟིན་ཐོ་འམ་དཔྱད་": 5550,
      "ཆོག་མཆན": 5551,
      "་བདུད": 5552,
      "ལོ་བར་": 5553,
      "རོལ་དབྱངས": 5554,
      "རང་ཞིང་གི་": 5555,
      "་བྱེད་མཁན་གྱི་": 5556,
      "རྟེན་འབྲེལ་ཞུ་བ": 5557,
      "གསོ": 5558,
      "སྐབས་བཅུ་གསུམ་པ": 5559,
      "་བྱམས": 5560,
      "གར་སྟེགས": 5561,
      "་གསུམ་གྱིས་": 5562,
      "་ཁ་": 5563,
      "གནད་དོན་གྱི་": 5564,
      "རྒྱབ་སྐྱོར་དང་": 5565,
      "་གཞོན་པ་": 5566,
      "རྒྱན་གོས": 5567,
      "་དྲུག་ཅུ": 5568,
      "་གཏན་འཁེལ་བྱས": 5569,
      "པུའི་པུའུ་ཀྲང": 5570,
      "་འཕྲུལ་ཆས": 5571,
      "་ཞེས་པ་": 5572,
      "དཔེ་སྐྲུན་": 5573,
      "ཅུས་ཀྱི་ཅུས་ཀྲང": 5574,
      "སྤྱི་ཚོགས་ཚན་རིག": 5575,
      "ཞིང་གསུམ": 5576,
      "ཅ": 5577,
      "་གསུམ་པའི་": 5578,
      "com": 5579,
      "འི་ནང་དོན": 5580,
      "▁ཚེ་རིང": 5581,
      "ཧ་ལམ་": 5582,
      "་གནང་སྟེ་": 5583,
      "ར་ཕེབས": 5584,
      "་རྒྱ་ཆེན་པོ": 5585,
      "མཛེས་པ": 5586,
      "▁ཆབ་སྲིད་ཀྱི་": 5587,
      "མི་སྣར་": 5588,
      "་ཕན་ཚུན": 5589,
      "སྡོམ་པ": 5590,
      "▁རྒྱུ": 5591,
      "་དམ་པོ": 5592,
      "ཁྱབ་པ": 5593,
      "་ལྡན་པའི་སྒོ་ནས་": 5594,
      "་ཆེན་གྱི་": 5595,
      "དངོས་སུ": 5596,
      "འི་ནུས་པ": 5597,
      "་བྱས་ཆོག": 5598,
      "སྐྱེ་དངོས་": 5599,
      "བདེན་པ": 5600,
      "་གསུམ་པོ": 5601,
      "དགོས་པ": 5602,
      "ཐུག་འཕྲད": 5603,
      "ལང་ཚོ": 5604,
      "་ཚལ": 5605,
      "ལྗོངས་": 5606,
      "་འཕྲུལ་འཁོར": 5607,
      "▁ཁྱོད": 5608,
      "▁ཨ་རིའི་": 5609,
      "དཔའ་བོ": 5610,
      "▁སློབ་གསོ": 5611,
      "ཨར": 5612,
      "ཨུད་ཀྱི་ཧྲུའུ་ཅི": 5613,
      "་སྤྱོད་པའི་": 5614,
      "་ཞང་": 5615,
      "ར་ཁང་གི": 5616,
      "ཧྲུའུ་ཅི་གཞོན་པ": 5617,
      "་བར་དུ་": 5618,
      "གོང་སྤེལ": 5619,
      "ཻ": 5620,
      "རང་རྒྱལ་": 5621,
      "དད་ལྡན་མང་ཚོགས": 5622,
      "་ཐིང": 5623,
      "▁ལན": 5624,
      "▁2008": 5625,
      "་པར་བྱེད་པ": 5626,
      "ཕན་ཐོགས": 5627,
      "རྐུ": 5628,
      "སྨྱན་སྦྱོར": 5629,
      "རྒན་རྒོན": 5630,
      "་འཆད": 5631,
      "▁རྒྱལ་ཡོངས་དམངས་": 5632,
      "བཅའ་ཁྲིམས་དང་": 5633,
      "བྱེད་པ": 5634,
      "དཔོན་དམག": 5635,
      "་རྙེད་པ": 5636,
      "སྤྱི་པའི་ཞབས་ཞུ": 5637,
      "ཡུལ་དངོས་སུ་": 5638,
      "འི་བར་": 5639,
      "དེང་གི་": 5640,
      "ལོ་ནས": 5641,
      "ཨུ་རུ་སུའི་": 5642,
      "མོས་མཐུན": 5643,
      "ང་རང": 5644,
      "ཞིབ་འཇུག་པ": 5645,
      "འབྱུང་བ": 5646,
      "པེ་ཅིན་": 5647,
      "་སྟེང་གི་": 5648,
      "ཚུན": 5649,
      "་ཡན་གྱི་": 5650,
      "འགྲེལ་བ": 5651,
      "མི་ཚོགས": 5652,
      "གཙང་སྦྲ": 5653,
      "་རེ་རེའི་": 5654,
      "ལུས་པོ": 5655,
      "ཡོང་འབབ་": 5656,
      "གསུམ་གྱི་": 5657,
      "རོལ་རྩེད": 5658,
      ">": 5659,
      "ལོག": 5660,
      "་མི་འགྱུར": 5661,
      "▁དཔལ": 5662,
      "་རྩ་ཆེན": 5663,
      "་མགོན": 5664,
      "་ཡོལ": 5665,
      "་གུར": 5666,
      "དམངས་ཆེན་": 5667,
      "་སྟེགས": 5668,
      "་བཅུ་དྲུག": 5669,
      "་འབེབས": 5670,
      "གྲ་སྒྲིག་": 5671,
      "་ལེགས་འགྲུབ": 5672,
      "ལག་རྩལ་གྱི་": 5673,
      "་བདུན་གྱི་": 5674,
      "་བདུན་": 5675,
      "▁ཁྱོད་ཀྱིས་": 5676,
      "གོང་དུ་": 5677,
      "རྩེ་མོ": 5678,
      "གཙོ་བོ": 5679,
      "ཉེན་རྟོག་": 5680,
      "ཡོད་ལ": 5681,
      "▁2": 5682,
      "་པར་བཤད": 5683,
      "▁རང་ཞིང་གི་": 5684,
      "ལྐོག": 5685,
      "དར་རྒྱས་གོང་འཕེལ": 5686,
      "་འཁོར་ལོ": 5687,
      "་གྲོང་རྡལ་": 5688,
      "་སྣ་ཚོགས་ཀྱི་": 5689,
      "བདེན་དཔང": 5690,
      "གྲོང་ཚོར་": 5691,
      "་བཅས་ཀྱི་ཐོག་ནས་": 5692,
      "་སྲ": 5693,
      "སྒོར་ཁྲི": 5694,
      "▁༥": 5695,
      "ཐོ་འགོད": 5696,
      "ཏང་ཀྲུང་དབྱང་གིས": 5697,
      "▁ཁྱེད": 5698,
      "ཆབ": 5699,
      "མི་ཁྲི་": 5700,
      "མཐུ": 5701,
      "གྲོས་རིམ": 5702,
      "ལོར་སླེབས་སྐབས་": 5703,
      "འགོ་འཛིན": 5704,
      "་ངེས་རེད": 5705,
      "་གནད": 5706,
      "འབྲོག་པ": 5707,
      "འདེབས་འཛུགས་": 5708,
      "དཔེ་མཛོད་ཁང": 5709,
      "སྙིང་པོ": 5710,
      "་ཞིབ་མོ": 5711,
      "མེ་ཏོག་གི་": 5712,
      "་གཏོང་དགོས་པ": 5713,
      "མི་རིགས་སློབ་ཆེན": 5714,
      "▁ལྗོངས་": 5715,
      "་སྤྲིན": 5716,
      "དབུ་བརྙེས་ནས་ལོ་": 5717,
      "་ཉམས་པ": 5718,
      "▁ཚ": 5719,
      "རྒྱལ་ཁབ་སྐྱོང་བ": 5720,
      "འཁོར་བ": 5721,
      "ཚོན": 5722,
      "སྒྱུར": 5723,
      "ཤེས་རྟོགས": 5724,
      "ཐབས་ཇུས་": 5725,
      "འཕྲལ་སྡོམ་": 5726,
      "་གྲོས": 5727,
      "འཆར་ཟིན": 5728,
      "གཡོ": 5729,
      "་གང་ཡང": 5730,
      "་འཁྱིལ": 5731,
      "ཞང་ཞུང་": 5732,
      "རྩྭ་ཐང་གི་": 5733,
      "་མཆོག་གིས་": 5734,
      "▁ཧ": 5735,
      "་ཀྲའོ": 5736,
      "་ཁྲོ": 5737,
      "ཤེས་དཔལ་": 5738,
      "བསྡུ": 5739,
      "▁སྐབས": 5740,
      "ཞག": 5741,
      "ལུག་": 5742,
      "་བཙུགས་ཏེ": 5743,
      "བདེ་སྐྱིད་ཀྱི་": 5744,
      "་ཐེབས་པའི་": 5745,
      "སློབ་ཆེན་སློབ་མ": 5746,
      "གཞི་རིམ་དུ་": 5747,
      "ཆོས་ཀྱི་": 5748,
      "དགོས་ངེས་ཀྱི་": 5749,
      "རྒྱུད་འཛིན": 5750,
      "ཚོགས་འདུར་ཞུགས": 5751,
      "་ལྷུག": 5752,
      "་བྱམས་པ": 5753,
      "་ལ་དོ་སྣང": 5754,
      "རྐྱེན་ལམ་དུ་ཤོར": 5755,
      "ཡི": 5756,
      "ཕྲད": 5757,
      "མཆོང་སྐྱོད་ལྟ་བུ": 5758,
      "རྫུན": 5759,
      "ཏེ": 5760,
      "་བཟོས་ནས་": 5761,
      "ནྡ": 5762,
      "་ཐུབ་པ་བྱེད་དགོས": 5763,
      "དབུལ་པོའི་": 5764,
      "▁ཉེ་ལམ": 5765,
      "སྲན": 5766,
      "63": 5767,
      "དྲག": 5768,
      "▁མི་": 5769,
      "་ངམ་": 5770,
      "ནོར་སྲིད་ཀྱི་": 5771,
      "་བསྡད": 5772,
      "འཇབ་རྒོལ": 5773,
      "་རླབས་ཆེན་བསྐྱར་": 5774,
      "་བོའི་": 5775,
      "རྣམ་པར": 5776,
      "་སྤྲོ": 5777,
      "་སྦྱར་བ": 5778,
      "མཱ": 5779,
      "སློབ་གླིང་": 5780,
      "འཚམ": 5781,
      "་ཞབས་ཞུ": 5782,
      "▁དེ་བས": 5783,
      "་བྱི": 5784,
      "ཆེད་མངགས་": 5785,
      "་དུང་ཕྱུར་": 5786,
      "་རླངས་འཁོར": 5787,
      "76": 5788,
      "▁འགྲིམ་འགྲུལ་": 5789,
      "་མཐུན་སྦྱོར": 5790,
      "ལྟ་བུ": 5791,
      "་ལ་ཉན": 5792,
      "ཨ་ཧྥེ་རི་ཁ": 5793,
      "ལོ་རྒྱུས་ཐོག་": 5794,
      "ིག": 5795,
      "དྲང": 5796,
      "ལོ་ཟླ": 5797,
      "དུས་ཀྱི་": 5798,
      "བདུད་རྩི": 5799,
      "་གློག": 5800,
      "་གྱུར་པ": 5801,
      "བརྒྱ་ཆ": 5802,
      "འབྱུང་འགྱུར་": 5803,
      "གྱོད་དོན": 5804,
      "སྤུས་ཚད་མཐོ་བའི་": 5805,
      "སྤྱི་ཚོགས་ལ་": 5806,
      "གཞིས་རྩེ་": 5807,
      "་ཅེས་བཤད་པ་རེད": 5808,
      "་འཛུམ": 5809,
      "བཟའ": 5810,
      "ཁྱབ་ཁོངས་སུ་": 5811,
      "རྒྱུན་ཨུ": 5812,
      "ཁྲ": 5813,
      "་མོས": 5814,
      "ོའུ": 5815,
      "ཁྲོད": 5816,
      "་བཙུན": 5817,
      "་གཞན་ལ": 5818,
      "79": 5819,
      "འཆི": 5820,
      "ལྷོ་ཁ་ས་ཁུལ་": 5821,
      "སྤྱི་ཟླ": 5822,
      "ཚན་ཆུང": 5823,
      "རྣམ་གཞག": 5824,
      "་དེ་གཉིས": 5825,
      "་པའི་དུས": 5826,
      "2019": 5827,
      "་བསྐྲུན་དགོས": 5828,
      "ཞིང་ཁམས": 5829,
      "་རེད་ཟེར": 5830,
      "ཏང་ཨུའི་": 5831,
      "་བསྟན་པའི་": 5832,
      "བློ་འདྲི": 5833,
      "་པོ་ཡོད": 5834,
      "་བྱེད་རྒྱུའི་": 5835,
      "རྟེན་རྫས་བཤམས་": 5836,
      "ལས་འགན་": 5837,
      "ty": 5838,
      "▁ཚིག": 5839,
      "སེ": 5840,
      "ཆུ་ལོག": 5841,
      "ནུས": 5842,
      "གཏན་ཚིགས": 5843,
      "for": 5844,
      "་རྩིས་ལེན": 5845,
      "་རྒྱུ་ཡིན་པ་དང་": 5846,
      "འཁོར་བར་": 5847,
      "བྱེད་སྒོ་": 5848,
      "་པའམ་": 5849,
      "གནད་འགག": 5850,
      "ཁྲོམ་གཞུང": 5851,
      "གླ་ཆ": 5852,
      "་བཞུགས་པ": 5853,
      "སྡེ་ཚན་གྱི་": 5854,
      "ཇོ་བོ": 5855,
      "འགན་འཁྲི་": 5856,
      "སྤྱིར་": 5857,
      "་རྣམ་གཉིས": 5858,
      "་ལེགས་སུ་གཏོང་བ": 5859,
      "་ཏྲ": 5860,
      "82": 5861,
      "དྲ་སྦྲེལ་": 5862,
      "ཤི": 5863,
      "སྔོན་དུ་": 5864,
      "དབར་གྱི་": 5865,
      "རྩོད": 5866,
      "་གཉིས་པོ": 5867,
      "རྩོད་པ": 5868,
      "ཁྲོམ": 5869,
      "་ཨེར": 5870,
      "с": 5871,
      "་བསྐྱུར": 5872,
      "ལོ་ངོ་": 5873,
      "88": 5874,
      "གཏན་ཁེལ": 5875,
      "མཁའ": 5876,
      "་བླངས་པ": 5877,
      "པུའུ་ཡིས་": 5878,
      "་འཕེན": 5879,
      "ངག་རྒྱུན": 5880,
      "་རི་བོའི་": 5881,
      "་ཁྱུ": 5882,
      "་ཇེ་མགྱོགས": 5883,
      "མན་ངག": 5884,
      "་མང་ཤོས": 5885,
      "་ལག་ལེན་བསྟར": 5886,
      "་སྟབས་བདེ": 5887,
      "་བཞིན་ཡོད་པ་དང་": 5888,
      "་སྦ": 5889,
      "་མཆོག་": 5890,
      "པུའི་": 5891,
      "▁ཞེས་དང་": 5892,
      "་གཟབ་རྒྱས": 5893,
      "་གཏོང་བ་བཅས": 5894,
      "སྐྱོ": 5895,
      "མཉམ་འདྲེས": 5896,
      "62": 5897,
      "་ངེས་པར": 5898,
      "་པའང": 5899,
      "ཨུ་ལྷན་གྱིས་": 5900,
      "▁རླུང": 5901,
      "ཞིབ་འཇུག་སློབ་མ": 5902,
      "ངོས་ཟིན": 5903,
      "▁ནོར": 5904,
      "་ཧ་ཅང་ཆེན་པོ": 5905,
      "་ར་བ": 5906,
      "ར་འགྲོ": 5907,
      "ཕྱུགས་ཟོག": 5908,
      "འི་ཁྱད་ཆོས": 5909,
      "སྡོང": 5910,
      "་པའི་ངོས་འཛིན": 5911,
      "་ཞུ་བའི་": 5912,
      "་གང་མགྱོགས": 5913,
      "བོད་མི་རིགས་ཀྱི་": 5914,
      "བྱ་བའི་གྲོས་ཚོགས": 5915,
      "་སྤྲོད་པའི་": 5916,
      "འདུ": 5917,
      "གཉའ": 5918,
      "སྐྱེས་པའི་": 5919,
      "་བཀོད་པའི་": 5920,
      "ཁྲོད་ཀྱི་": 5921,
      "སྔོན་དཔག": 5922,
      "ལག་ཆ": 5923,
      "་བཅུད": 5924,
      "▁གསར་འགོད་པར་": 5925,
      "རིག་གནས་ཡུལ་སྐོར": 5926,
      "་པའི་དོན": 5927,
      "་བསླངས": 5928,
      "་ལས་ཀྱང": 5929,
      "་ལེགས་སྒྱུར": 5930,
      "རྒྱ་སྐད": 5931,
      "ལས་དོན་སྙན་སྒྲོན": 5932,
      "ནུས་པ་གལ་ཆེན": 5933,
      "་སྣང་": 5934,
      "་བྱས་ཚེ་": 5935,
      "ཡོངས་འཛིན": 5936,
      "་གཏན": 5937,
      "དགོན་པའི་": 5938,
      "བཀོད": 5939,
      "བྱང་བུ": 5940,
      "ཉེས་དོན་": 5941,
      "་བུད": 5942,
      "པ་སངས": 5943,
      "མཚན་མོ": 5944,
      "་ལོས": 5945,
      "ldid": 5946,
      "འདུ་ཚོགས": 5947,
      "དཔེ་ཚོགས": 5948,
      "98": 5949,
      "་དོད": 5950,
      "་ལམ་དུ": 5951,
      "ཟུང་འབྲེལ་བྱས་ཏེ": 5952,
      "ལས་རིགས་སློབ་གསོ": 5953,
      "ས་ཁམས་": 5954,
      "བྲོ": 5955,
      "བརྩམས་ཆོས་": 5956,
      "སྔོན་རྩིས": 5957,
      "གཏན": 5958,
      "གྲུབ་འབྲས་ཐོབ་པ": 5959,
      "གྱོད": 5960,
      "ཞིབ་བསྡུར": 5961,
      "་གཡས": 5962,
      "▁«": 5963,
      "རྒྱུན་འཛིན་པ": 5964,
      "་ཚོགས་ཆུང": 5965,
      "ས་ན་": 5966,
      "ཤུགས་སྣོན": 5967,
      "་དུ་འགྱུར": 5968,
      "་པཱ": 5969,
      "ཁྱབ་སྤེལ": 5970,
      "་ནི་ཀྲུང་གོའི་": 5971,
      "འི་རྣམ་ཐར": 5972,
      "འཇར་མན་གྱི་": 5973,
      "བྱིས་པ་": 5974,
      "ཤང་དང་གྲོང་རྡལ": 5975,
      "་མགོན་པོ": 5976,
      "་དེ་དག་ནི་": 5977,
      "དགེ་འདུན་པ": 5978,
      "་སྔར": 5979,
      "ཞི་བདེ་རྒྱ་མཚོ": 5980,
      "་དུ་སོང་ནས་": 5981,
      "དགོངས": 5982,
      "ལས་གཏོད": 5983,
      "་རིག་འཛིན": 5984,
      "་ལམ་སྲོལ": 5985,
      "སློབ་སྦྱོང་བྱེད": 5986,
      "▁ཉ": 5987,
      "བྱ་འགུལ་སྤེལ་བ": 5988,
      "པྱད་གཞིའི་དཀར་ཆག": 5989,
      "འཕྲུལ": 5990,
      "་བྱེད་བཞིན་ཡོད་པ": 5991,
      "གཞོན་ནུའི་": 5992,
      "ཉུང": 5993,
      "ru": 5994,
      "་བདུན་ཅུ": 5995,
      "་ཆེ་གེ་མོ": 5996,
      "དུས་": 5997,
      "གསལ་བཤད": 5998,
      "་པའམ་ཡང་ན་": 5999,
      "sh": 6000,
      "གསར་སྐྲུན་": 6001,
      "ས་ཆའི་": 6002,
      "▁&": 6003,
      "འི་ཁྲོད་དུ་": 6004,
      "ནད་རྟགས": 6005,
      "ཐེ་ཚོམ": 6006,
      "འགོ་གཙོ": 6007,
      "ཏང་འཛུགས་སྐྱོང": 6008,
      "་མཚར": 6009,
      "ཅུའུ་ཡིས་": 6010,
      "▁ལྗོངས་ཏང་ཨུད་": 6011,
      "ད་ལྟ": 6012,
      "་ཡོང་བ་དང་": 6013,
      "སྤྱི་བདེ་ལས་ཁུངས": 6014,
      "མཆན་བཀོད་": 6015,
      "་ནས་ཀྱང་": 6016,
      "ཚོར་སྣང": 6017,
      "ཅང": 6018,
      "▁གཉིས་ནི་": 6019,
      "རྒྱལ་སྲས": 6020,
      "་འཇམ་དབྱངས": 6021,
      "ཁུར": 6022,
      "སྨྱུག": 6023,
      "ལས་འགུལ": 6024,
      "འཆད": 6025,
      "▁བྱང": 6026,
      "མེས་རྒྱལ་": 6027,
      "ཉོ་ཚོང": 6028,
      "སྤུས་ཀ": 6029,
      "་ཆབ": 6030,
      "མ་རྐང": 6031,
      "་འཆི": 6032,
      "ས་གཤིས་": 6033,
      "ཕྱོགས་ཡོངས་ཀྱི་": 6034,
      "གོམ": 6035,
      "ཐེངས་བཅོ་བརྒྱད་པ": 6036,
      "་དགོན་གྱི་": 6037,
      "་གྲབས": 6038,
      "་བསྒྱུར་བ": 6039,
      ",.": 6040,
      "་རི་མོ": 6041,
      "སངས་རྒྱས་ཀྱི་": 6042,
      "་ཕལ་ཆེ་བ": 6043,
      "་ངོ་": 6044,
      "་དང་ཆུ": 6045,
      "he": 6046,
      "ཆབ་སྲིད་དང་": 6047,
      "▁ཞི": 6048,
      "ངོ་གདོང": 6049,
      "ལོ་གཅིག": 6050,
      "་བསྡུ་བའི་": 6051,
      "་བསལ": 6052,
      "གྲོས་འཆམ་བྱུང་བ": 6053,
      "་གམ": 6054,
      "་ལྕི": 6055,
      "་ཀྲེ": 6056,
      "་དགོངས": 6057,
      "་པ་སོགས་": 6058,
      "འཕར་ཚད་": 6059,
      "རྫོང་རིམ་པའི་": 6060,
      "▁དབུལ་ཕོངས་": 6061,
      "་བཞག་ནས་": 6062,
      "འཕྲད་པའི་": 6063,
      "wikimedia": 6064,
      "་ཚོགས་ཆུང་གིས་": 6065,
      "་འོག་ཏུ": 6066,
      "སྙན་སྒྲོན": 6067,
      "་ལྷུང": 6068,
      "་ཁྲེང": 6069,
      "་བྱུང་བས་": 6070,
      "་བཟུང་བ": 6071,
      "བྲོ་བ": 6072,
      "ཞེས་བརྗོད": 6073,
      "འི་དུས་ཚོད": 6074,
      "དྲ་སྦྲེལ": 6075,
      "་ཀྱི་སྙིང་སྟོབས": 6076,
      "ལོ་རབས": 6077,
      "འཁྱགས": 6078,
      "་ཙམ་ཡང": 6079,
      "ཁོང་ཚོར་": 6080,
      "་གསུམ་ལ་": 6081,
      "་བགྱིས": 6082,
      "་ངེས་པ": 6083,
      "ཀྲོའུ": 6084,
      "་ཙམ་དུ": 6085,
      "འབྲོག་ཁུལ་གྱི་": 6086,
      "་པའི་ཚུལ": 6087,
      "ན་གྱི་": 6088,
      "མཁའ་དབུགས": 6089,
      "་འཛིན་": 6090,
      "བཟོ་རྩལ": 6091,
      "དཔེ་སྟོན": 6092,
      "གངས་ལྗོངས་": 6093,
      "བརྗོད་གཞི": 6094,
      "མཉེན་ཆས": 6095,
      "དངོས་ཟོག": 6096,
      "དཀའ་སྡུག": 6097,
      "་ཡིན་མིན": 6098,
      "་ཅུས": 6099,
      "་དེད": 6100,
      "་བཙུགས་ནས": 6101,
      "་ཁྱེར": 6102,
      "འབྱུང": 6103,
      "་ཤེད": 6104,
      "][": 6105,
      "གཞི་ནས་": 6106,
      "་དེ་ཡོངས་ཀྱི་": 6107,
      "་ཆོན": 6108,
      "ཞི་བའི་": 6109,
      "འཇང": 6110,
      "▁གྲོང་ཁྱེར་": 6111,
      "་གཏོང་ཆེད་": 6112,
      "་མཁོ": 6113,
      "ནུབ་རྒྱུད་": 6114,
      "་གཞོན་ནུ": 6115,
      "་ལགས་": 6116,
      "་གྲོང་རྡལ་གྱི་": 6117,
      "་གོང་གི་": 6118,
      "་ཟ་བ": 6119,
      "་འཇིག": 6120,
      "ལམ་ནས་": 6121,
      "▁སློབ་དཔོན": 6122,
      "མནའ་འབྲེལ་": 6123,
      "་མི་འདང་བ": 6124,
      "རིག": 6125,
      "86": 6126,
      "د": 6127,
      "་ཅུང་ཙམ": 6128,
      "800": 6129,
      "་གྱིན": 6130,
      "▁མདོ": 6131,
      "་གཏན་འགོག": 6132,
      "གཟིགས": 6133,
      "ར་ཤུགས་སྣོན": 6134,
      "་ཁྲིམས་ཞིབ་བཤེར་": 6135,
      "་བྱེད་སྒོ": 6136,
      "སེར": 6137,
      "་བཅུག": 6138,
      "་དགོས་ཀྱི་ཡོད": 6139,
      "ལྗོངས་འཕྲིན་དྲ": 6140,
      "་ཐེངས་གཉིས་པ": 6141,
      "་བར་བྱེད": 6142,
      "ལྷག་ཙམ་གྱི་": 6143,
      "འི་ཚོགས": 6144,
      "མཛུབ་ཁྲིད་": 6145,
      "རང་སྐྱོང་": 6146,
      "གཙང་པོ": 6147,
      "ཕྱུག་འགྱུར": 6148,
      "ཕེབས": 6149,
      "་འཚལ": 6150,
      "མེ་ཏོག་": 6151,
      "▁ད་ལྟ": 6152,
      "ནམ་མཁའ": 6153,
      "ཡིད་རྟོན": 6154,
      "ལུས་རྩལ": 6155,
      "་བསུས": 6156,
      "འི་ཐད་ནས་": 6157,
      "་བགོས": 6158,
      "མྱུར་ཚད": 6159,
      "ལུས་རྩལ་པ": 6160,
      "མཁྱེན": 6161,
      "་གསར་བ་ཞིག": 6162,
      "་དཔུང": 6163,
      "ཁྲེང་ཀོན་ཆུས་": 6164,
      "་དུ་གཏོང་བ་དང་": 6165,
      "་མང་པོ་ཡོད": 6166,
      "་བྱེད་དགོས་ཤིང་": 6167,
      "་བྱ་རྒྱུ་": 6168,
      "་འཛུགས་པའི་": 6169,
      "མཐུན": 6170,
      "་འཇོག་པ": 6171,
      "དཔར": 6172,
      "་ཇུས་འགོད": 6173,
      "བཟོ་གྲྭ": 6174,
      "▁སི་ཁྲོན་": 6175,
      "་བཅོས་སྒྲིག": 6176,
      "སློབ་གྲྭར་": 6177,
      "གསུང་རྩོམ": 6178,
      "བདེན": 6179,
      "གློ་བུར་དུ་": 6180,
      "འགག་རྩའི་": 6181,
      "▁ལྕགས": 6182,
      "རྒྱལ་ཡོངས་སུ་": 6183,
      "བཟོ་བཅོས": 6184,
      "་སྨྲ་བའི་": 6185,
      "pe": 6186,
      "་ཐེན": 6187,
      "དཔེ་སྟོན་ཁུལ": 6188,
      "ཕྱོགས་གཉིས་ཀྱི་": 6189,
      "སློབ་གསོ་ལག་ལེན་": 6190,
      "ར་བརྟེན་": 6191,
      "་སྒུག": 6192,
      "ཐན": 6193,
      "འཛིན་གྲྭའི་": 6194,
      "་བཅུ་གཅིག": 6195,
      "་ཏུ་གྱུར": 6196,
      "སྤ": 6197,
      "་བརྟན་པོར": 6198,
      "རོལ་མོ": 6199,
      "སྟེང་ནས་": 6200,
      "་ཇེ་མཐོར་གཏོང་བ": 6201,
      "འུ་": 6202,
      "ཁྱོན་ཡོངས་": 6203,
      "་བཙུགས་ཡོད": 6204,
      "ཞིང་དུད": 6205,
      "སློབ་འབྲིང་གི་": 6206,
      "སྐྱོན་བྲལ་ངང་": 6207,
      "▁ཞིང": 6208,
      "▁ཡོང་ཁུངས་": 6209,
      "་གཏིང་ཟབ་བྱེད་པ": 6210,
      "་ལུའོ": 6211,
      "༥༦": 6212,
      "དུས་མཚུངས": 6213,
      "་ལ་དབྱེ་ཞིབ": 6214,
      "རྒྱས": 6215,
      "ཞིབ་འཇུག་དང་": 6216,
      "མཛའ་གྲོགས་": 6217,
      "་བརྩི": 6218,
      "▁2009": 6219,
      "т": 6220,
      "▁རྗེས་སུ་": 6221,
      "་དེ་ལས་": 6222,
      "དད་མོས": 6223,
      "་བྱས་ཡོད་པ་དང་": 6224,
      "སྲ": 6225,
      "དཔལ་ཡོན་": 6226,
      "་གཡུག": 6227,
      "མཐའ་སྲུང་": 6228,
      "་དཔར": 6229,
      "་འགའ་རེ": 6230,
      "་བསྲེགས": 6231,
      "་ཏའོ": 6232,
      "བར་གྱི་འབྲེལ་བ": 6233,
      "་བཞི་དང་": 6234,
      "Z": 6235,
      "སྐབས་བཅོ་བརྒྱད་པ": 6236,
      "སྡེ་ཚན་ཁག་གིས་": 6237,
      "དེང་སྐབས་": 6238,
      "་མོས་": 6239,
      "ཕྱི་ནང": 6240,
      "་བཟུང་ནས": 6241,
      "ཡུལ་སྐད": 6242,
      "་བཟོད": 6243,
      "པེ་ཅིན": 6244,
      "དགའ་བསུ": 6245,
      "་གནང་ཡོད་པ་རེད": 6246,
      "་སློག": 6247,
      "་ཡོད་ཅེས་བཤད": 6248,
      "་བཀར": 6249,
      "བྱས་པ": 6250,
      "96": 6251,
      "་སེར་པོ": 6252,
      "▁བོད་དུ་": 6253,
      "ལས་གཞི་": 6254,
      "་དམག་གི་": 6255,
      "ལྷམ": 6256,
      "འཁྲབ་སྟོན་པ": 6257,
      "▁ཁྲིམས་འཛིན་": 6258,
      "ཤོ": 6259,
      "ཐོན་ཚད": 6260,
      "ཡིག་རིགས": 6261,
      "་ལ་བརྟེན": 6262,
      "མི་རྣམས་ལ་": 6263,
      "▁ཕྱིས་སུ་": 6264,
      "སྤྱི་ཚོགས་དང་": 6265,
      "བུ་ལོན": 6266,
      "་བཀལ": 6267,
      "འདུ་ཁང": 6268,
      "ཡུལ་མིའི་": 6269,
      "འབྲས": 6270,
      "་དམིགས": 6271,
      "་ཚུལ་དང་": 6272,
      "▁ལྷོ": 6273,
      "་དང་དེ": 6274,
      "རམ་འདེགས": 6275,
      "ཝང": 6276,
      "ྲི": 6277,
      "▁ཞི་ཅིན་ཕེན་གྱིས": 6278,
      "་སྤྱིའི་": 6279,
      "་བསྐྱལ": 6280,
      "་མཁོ་སྤྲོད": 6281,
      "་ལྷན་ཁང་གི་": 6282,
      "་མི་བྱེད་པ": 6283,
      "རི་སྐྱེས་སྲོག་ཆག": 6284,
      "སྔོན་ལ": 6285,
      "མཛོད་ཁང": 6286,
      "་ལྔ་": 6287,
      "བཅུད": 6288,
      "་བཞི་བཅུ": 6289,
      "དངོས་གཞིའི་": 6290,
      "་གློག་འཕྲིན་ལྟར": 6291,
      "བཅུ་བཞི་པ": 6292,
      "2008": 6293,
      "ཤང་གྲོང་": 6294,
      "ཟིན་ཡོད་པ་རེད": 6295,
      "་ལྗང": 6296,
      "ུས་རྩལ་འགྲན་ཚོགས": 6297,
      "་སྲུང་": 6298,
      "ཅུང": 6299,
      "་འགྲོ་བཞིན་ཡོད": 6300,
      "ལ་ཞབས་འདེགས་ཞུ་བ": 6301,
      "ཁྲིམས་མཐུན་": 6302,
      "་སྐོང": 6303,
      "ར་བཅའ་སྡོད་": 6304,
      "་ཡོད་ན་": 6305,
      "ཡིག་སྒྱུར": 6306,
      "▁ཁམས་པའི་དྲ་བ": 6307,
      "ཕྲེང་བ": 6308,
      "▁དབང": 6309,
      "་མེད་ན": 6310,
      "་ཉིས་བརྒྱ": 6311,
      "་ཡོང་བར": 6312,
      "ལོ་ཙཱ": 6313,
      "རྣམ་དབྱེ": 6314,
      "་འཐུས་ཚང": 6315,
      "▁མིག་སྔའི་བར་": 6316,
      "9": 6317,
      "་ལས་བྱུང་བ": 6318,
      "KB": 6319,
      "སེང་གེ": 6320,
      "་བརྙན": 6321,
      "?": 6322,
      "དྲ་བའི་འཕྲིན་": 6323,
      "དེབ་ཐེར": 6324,
      "<": 6325,
      "བསྐྱོད་དེ་": 6326,
      "རིམས་ནད་སྔོན་འགོ": 6327,
      "et": 6328,
      "མདོ་ཁམས": 6329,
      "སྔགས": 6330,
      "གྱོང་གུན": 6331,
      "་སྤངས": 6332,
      "ཁྱད་ཆོས་དང་": 6333,
      "བདེ་སྲུང་": 6334,
      "་ཡིས་བཤད་རྒྱུར": 6335,
      "ཕྱི་ཕྱོགས་དྲ": 6336,
      "་ཕུར": 6337,
      "་ཁྱབ་སྒྲོག་བྱས": 6338,
      "སྐལ་བཟང": 6339,
      "་གསར་པར་": 6340,
      "་གྱེས": 6341,
      "དུང": 6342,
      "་བརྒྱད་": 6343,
      "་ཞན་པ": 6344,
      "་འཐོར": 6345,
      "་ཧྥ": 6346,
      "ལམ་ལུགས་འཐུས་ཚང": 6347,
      "ངོ་སྤྲོད་": 6348,
      "འཐབ་ཇུས་ལག་བསྟར": 6349,
      "ie": 6350,
      "་བཞག་ཡོད": 6351,
      "་བསྒྱུར་བའི་": 6352,
      "ཚད་མ": 6353,
      "སྲོག་ཤིང": 6354,
      "་གཉེན": 6355,
      "་བཅུ་བཞི": 6356,
      "▁གཞི་རིམ་གྱི་": 6357,
      "་ཚེ་རིང་གིས་": 6358,
      "གཟན་རྩྭ": 6359,
      "ཆུ་ཚོད་": 6360,
      "བོད་སྨན་": 6361,
      "ཕྱུགས་རིགས": 6362,
      "ལས་དོན་ཐད་": 6363,
      "་འཆམ": 6364,
      "qu": 6365,
      "གནམ་གྲུ་ཐང": 6366,
      "སྒྲིག་ཁྲིམས་": 6367,
      "་འགྱུར་": 6368,
      "ཆོས་འབྱུང": 6369,
      "་ཚོམ": 6370,
      "་ཡུ": 6371,
      "རྣམ་པར་": 6372,
      "་ཚོང་": 6373,
      "ཞབས་ཕྱི": 6374,
      "་དང་ཀྲུང་གོ་": 6375,
      "གེ་སར་": 6376,
      "་སྦྱང": 6377,
      "ར་བའི་": 6378,
      "་སྒྲོམ": 6379,
      "▁བསོད་ནམས": 6380,
      "▁ཏ": 6381,
      "་འཇོག་དགོས": 6382,
      "▁ཉིང་ཁྲི": 6383,
      "་ཁྱོན་": 6384,
      "་ས་ཁུལ་དུ་": 6385,
      "་བསྡོམས་འབོར་": 6386,
      "་པིན": 6387,
      "༣༦": 6388,
      "ར་བཞུགས": 6389,
      "་པ་ལྟར": 6390,
      "▁2.": 6391,
      "་སུ་གྱུར": 6392,
      "མཛེས་སྡུག་གི་": 6393,
      "by": 6394,
      "་ཀྲེང": 6395,
      "▁སྡེ་བ": 6396,
      "་ཆེ་རུ་གཏོང་དགོས": 6397,
      "འགྲུལ་པ": 6398,
      "ཕྱུགས་ལས་": 6399,
      "་མ་བྱུང་": 6400,
      "་ལ་ངོ་རྒོལ": 6401,
      "་འདྲ་བའི་": 6402,
      "རིག་གཞུང": 6403,
      "་ཧྲེ": 6404,
      "ན་ཟུག": 6405,
      "་སོགས་སུ": 6406,
      "་གྲ་སྒྲིག": 6407,
      "རང་གིས་": 6408,
      "རང་མོས": 6409,
      "ྦ": 6410,
      "ཚོང་པ": 6411,
      "་འཕྲིན": 6412,
      "་སུ་གཏོང་བའི་": 6413,
      "སྐད་གཉིས་": 6414,
      "ཆད་པ": 6415,
      "ཚན་ཁག་གི་": 6416,
      "རྨ་ཆུའི་": 6417,
      "་གནས་པ": 6418,
      "སྤྱི་གླིང": 6419,
      "0.1": 6420,
      "་ཡོད་ཚད་": 6421,
      "ོག": 6422,
      "ཚན་རིག་གི་": 6423,
      "་ལས་མི": 6424,
      "ཞང་ཞུང": 6425,
      "ཞིང་": 6426,
      "ལུག": 6427,
      "་རིང་པོ": 6428,
      "ན་ནིང་གི་": 6429,
      "་བཅུའི་": 6430,
      "་ལའེ": 6431,
      "གླེགས་བམ": 6432,
      "སྤྱི་ཚོགས་ཀྱིས་": 6433,
      "སྒེའུ་ཁུང": 6434,
      "ཞར": 6435,
      "དཀའ": 6436,
      "སེམས་ཁུར": 6437,
      "སྦྲག": 6438,
      "་དང་བཅས": 6439,
      "་དགོན་": 6440,
      "དམ": 6441,
      "་ཕྱི་མ": 6442,
      "སློབ་འབྲིང་": 6443,
      "་གཟུགས་": 6444,
      "▁1.": 6445,
      "ཚོགས་འདུ་ཐེངས": 6446,
      "་སློབ་གྲྭ": 6447,
      "ལ་ངོ་རྒོལ་བྱེད་པ": 6448,
      "སྐུ་ཚེ": 6449,
      "སྨན་ཁང་དུ་": 6450,
      "སྐྱོད": 6451,
      "བྱིས་པར་": 6452,
      "བརྩེ་བའི་": 6453,
      "ཚིག་མཛོད": 6454,
      "ལས་འཁྱུར་ངལ་གསོ": 6455,
      "▁ས་གནས་": 6456,
      "རྟ་རྒྱུག": 6457,
      "་སྨྲས": 6458,
      "པི": 6459,
      "རྐང་རྩེད་སྤོ་ལོ": 6460,
      "་འགྱངས": 6461,
      "སྐོར་སྐྱོད་": 6462,
      "་གསར་པ་ཞིག": 6463,
      "སྐད་འཕྲིན": 6464,
      "ཕྱིར་གཏོང་": 6465,
      "་སྟོང་གི་": 6466,
      "གསར་དུ": 6467,
      "་ཟོས": 6468,
      "་རུབ": 6469,
      "དཔྱ་ཁྲལ": 6470,
      "རྡུལ": 6471,
      "མྱུར": 6472,
      "སོག": 6473,
      "འདིར་": 6474,
      "་དཔྱོད": 6475,
      "ེད": 6476,
      "སྲོག་ཤིང་གནང་བའི": 6477,
      "བཀོལ": 6478,
      "་མཐོ་རུ": 6479,
      "་བསིལ": 6480,
      "▁བོད་ལྗོངས་ཀྱིས་": 6481,
      "་ཁྱད་པར་ཅན": 6482,
      "མི་སྣ་དང་": 6483,
      "་བཏབ་པ": 6484,
      "་གཉིས་ཀྱིས": 6485,
      "་སྔོན་ལ": 6486,
      "་དགར": 6487,
      "་རྒྱག་པ་དང་": 6488,
      "ཁོག": 6489,
      "ཨུ་རུ་སུ": 6490,
      "་ཕྱོགས་སུ་": 6491,
      "སྤྱོད་ལམ": 6492,
      "་སོགས་ལ": 6493,
      "་བརྒྱབ་པ": 6494,
      "ཉམས་གསོ": 6495,
      "འབབ": 6496,
      "▁2019": 6497,
      "▁ཀྲུའུ་ཞི་": 6498,
      "ཙོང་ཁ": 6499,
      "་མྱོང་བ": 6500,
      "་སུ་གཏོང་བར་": 6501,
      "ཞིབ་འཇུག་ལྟེ་གནས": 6502,
      ").": 6503,
      "ཆད་གཅོད": 6504,
      "སྐོར་ཞིབ་": 6505,
      "སྦྲ": 6506,
      "དམག་དཔུང་གིས་": 6507,
      "ཧུར་ཐག་གིས་": 6508,
      "མཁས་གྲུབ": 6509,
      "ཐུ": 6510,
      "▁མི་རིགས་ཀྱི་": 6511,
      "སི་རི་ཡཱའི་": 6512,
      "ལྡེབས་རིས": 6513,
      "དཔུང་སྡེའི་": 6514,
      "་ཐམས་ཅད་ཀྱི་": 6515,
      "▁ཡིན་ན་ཡང་": 6516,
      "མཛའ": 6517,
      "ཁྱིམ་གཞིས": 6518,
      "ཡན་": 6519,
      "ར་གཞིགས་ན": 6520,
      "་དུ་འགྲོ་བ": 6521,
      "་བཅུ་གཅིག་པ": 6522,
      "མིག་ཟུང": 6523,
      "་བྱེ་བ": 6524,
      "འི་བྱ་བ": 6525,
      "ཟིན་བྲིས": 6526,
      "་ཚི": 6527,
      "་འཐབ": 6528,
      "ལྗོངས་ཡོངས་སུ་": 6529,
      "་ཕོར": 6530,
      "གནས་སྐབས": 6531,
      "བོད་རིག་པའི་དྲ་བ": 6532,
      "77": 6533,
      ":1": 6534,
      "མཚོ་སྔོན་མི་རིགས": 6535,
      "་ཞོན": 6536,
      "དབང་གྲགས": 6537,
      "▁ཆོས་ལུགས་": 6538,
      "་ཡུལ་དུ་": 6539,
      "སྤྱི་ཡོངས་ཀྱི་": 6540,
      "གན་རྒྱ": 6541,
      "་ཞིག་སྟེ": 6542,
      "་གཡོག": 6543,
      "་མ་ཡིན་པ": 6544,
      "རྐ": 6545,
      "་རྒྱས་པར": 6546,
      "་བརྡར": 6547,
      "དབར་": 6548,
      "་བྱེད་ནུས": 6549,
      "་རྒྱང": 6550,
      "▁དུས་": 6551,
      "་མཐོང་": 6552,
      "93": 6553,
      "▁མ་དངུལ": 6554,
      "▁བོད་ཡིག་བརྡ་": 6555,
      "་བྱེད་རྒྱུ་དང་": 6556,
      "་གྲལ": 6557,
      "no": 6558,
      "▁མུ་མཐུད་དུ་": 6559,
      "▁ཐང": 6560,
      "་མགྱོགས": 6561,
      "རྒྱལ་ཡོངས་དམངས་": 6562,
      "རྒྱབ་ལྗོངས": 6563,
      "▁སྤྱི": 6564,
      "▁གཞུང": 6565,
      "གསུངས": 6566,
      "▁པེ་ཅིང་": 6567,
      "་སླ་བ": 6568,
      "སྔོན་འགྲོའི་": 6569,
      "དོགས་ཟོན": 6570,
      "གླུ་གར": 6571,
      "་ལན་": 6572,
      "་དལ": 6573,
      "བྱུང་བར": 6574,
      "འཕྲིན་ལག་རྩལ་དྲ་": 6575,
      "འི་ཚོགས་འདུ་ཐེངས": 6576,
      "ཨང་དང་པོ": 6577,
      "་གཞན་དུ": 6578,
      "་འཆར་གཞི": 6579,
      "▁སྔོན": 6580,
      "▁གསར་གཏོད": 6581,
      "་ཀྱི་ཐོག་ནས་": 6582,
      "གཞན་གྱི་": 6583,
      "ཡི་རིང་": 6584,
      "85": 6585,
      "་ལག་རྩལ": 6586,
      "▁སྙན་ངག": 6587,
      "་དང་མཉམ་ལས": 6588,
      "་དེའང་": 6589,
      "གནས་སྟངས": 6590,
      "་འབུར": 6591,
      "སྐྱེ་ལྡན་": 6592,
      "ཀེ": 6593,
      "རྩོད་གཞི": 6594,
      "ལག་ལེན་གྱི་": 6595,
      "་ཙམ་ཞིག": 6596,
      "་མངོན་འགྱུར་བྱུང": 6597,
      "ཕྲ": 6598,
      "་དང་མཐུན་སྦྱོར": 6599,
      "གེ་འདུན་ཆོས་འཕེལ": 6600,
      "་གཙོ་བོར་": 6601,
      "73": 6602,
      "སྐུལ་སློང": 6603,
      "་གསར་པ་དང་": 6604,
      "རིག་གནས་ཤུལ་བཞག": 6605,
      "མི་འབོར་དབུལ་པོ": 6606,
      "ཁག་ཐེག": 6607,
      "འི་མིང": 6608,
      "་ཡོངས་རྫོགས": 6609,
      "▁གནད་དོན": 6610,
      "མུའུ": 6611,
      "༣༧": 6612,
      "ལོ་ལྔ": 6613,
      "༣༨": 6614,
      "་སྲུང་བ": 6615,
      "་འགྲིམ": 6616,
      "་དགུ་": 6617,
      "བོན་པོ": 6618,
      "ཆད": 6619,
      "ཧེ་བག": 6620,
      "་གྱི་སྒོ་ནས་": 6621,
      "འབྲེལ་བ་": 6622,
      "ཚོགས་འདུའི་ཐོག": 6623,
      "་ཕྱིན་ནས་": 6624,
      "ལེན": 6625,
      "་ཆིག་སྟོང": 6626,
      "་མའོ": 6627,
      "ཅིན": 6628,
      "ཟབ་སྤེལ": 6629,
      "▁གྲོང་ཚོ": 6630,
      "ལྕེ": 6631,
      "་བཞེངས་པ": 6632,
      "་འཆང": 6633,
      "ཁོངས་སུ": 6634,
      "འཛུམ": 6635,
      "་མའི": 6636,
      "་ཁྱབ་སྤེལ": 6637,
      "་བརྒྱབ་སྟེ་": 6638,
      "ཆེད་ལས་མཉམ་ལས་ཁང": 6639,
      "གྲོས་ཚོགས་སུ་ཞུག": 6640,
      "མི་མངོན་པའི་": 6641,
      "་བཅུ་གསུམ་པ": 6642,
      "ནང་གསེས": 6643,
      "་བརྒྱན": 6644,
      "རྗེས་ཤུལ": 6645,
      "་བཟོས་ཡོད": 6646,
      "དབྱང་ཆབ་སྲིད་ཅུས": 6647,
      "རྩོམ་པ་པོའི་": 6648,
      "པའོ": 6649,
      "མཚོ་ལྷོ་ཁུལ་": 6650,
      "རབ": 6651,
      "་སྤུངས": 6652,
      "བྱ་གཞག་འཕེལ་རྒྱས": 6653,
      "ཉར་ཚགས": 6654,
      "་དེ་ཚོ": 6655,
      "ཉིང་ཁྲི་": 6656,
      "འགན་གཙང་ལེན": 6657,
      "འཐུས་མི་": 6658,
      "་སྙོམས": 6659,
      "ཇི": 6660,
      "བདེ་ཐང་གི་": 6661,
      "བང": 6662,
      "་བ་དང": 6663,
      "མཚོ་སྔོན་པོའི་": 6664,
      "་རླབས": 6665,
      "སྤེལ་ཡོད": 6666,
      "གནས་སྐོར": 6667,
      "▁ཇ": 6668,
      "ཨ་ཕ": 6669,
      "▁དེ་དག་གི་": 6670,
      "འཚོ་བ་སྐྱེལ": 6671,
      "ལས་སྣོན": 6672,
      "་ལས་མ་འདས": 6673,
      "་གཏོང་ཆེད": 6674,
      "་ཐེབས་པ": 6675,
      "སྤུས་ལེགས་": 6676,
      "་གཏོང་རྒྱུ་དེ་": 6677,
      "འདུས": 6678,
      "ཞྭ": 6679,
      "་འགལ": 6680,
      "▁ལོ་ངོ": 6681,
      "་གཤེགས": 6682,
      "དོན་གྱི་": 6683,
      "▁གནམ": 6684,
      "་བསང": 6685,
      "་སྒྲིག་འཛུགས་བྱས": 6686,
      "པྲ": 6687,
      "་ལྡན་པ་དང་": 6688,
      "དགའ་སྤྲོ": 6689,
      "▁རང་ལྗོངས་ཀྱི་": 6690,
      "་རིག་གནས": 6691,
      "འི་འཚོ་བ": 6692,
      "ཞ": 6693,
      "སྤྲོ་སེམས": 6694,
      "69": 6695,
      "་གཏོད་པ": 6696,
      "རང་རྟོགས": 6697,
      "ལས་བྱེད་པར་": 6698,
      "འཛམ་གླིང་ཡོངས": 6699,
      "བཙུགས": 6700,
      "་ཤེས་ཐུབ": 6701,
      "སློབ་གསོར་": 6702,
      "ཕྱུག་པོ": 6703,
      "་ཆུང་གྲས": 6704,
      "་དང་འཕེལ་རྒྱས": 6705,
      "ཕྱིར་འཚོང": 6706,
      "ཐོག་ཁང": 6707,
      "ི་གནང་བའི་ཏང་": 6708,
      "་རེའི་": 6709,
      "་དང་མཐུན་པ": 6710,
      "ཨ་མའི་": 6711,
      "་ལ་འགྱུར་བ": 6712,
      "དྲག་ཆས་": 6713,
      "འགོ་ཚུགས་མཛད་སྒོ": 6714,
      "་གོང་འཕེལ": 6715,
      "་སྦས": 6716,
      "▁སངས་རྒྱས": 6717,
      "དཔང་ཡིག": 6718,
      "གཞུང་དྲང": 6719,
      "་པའི་མི": 6720,
      "▁སློབ་གསོ་": 6721,
      "སྔོན་འགྲོ": 6722,
      "ནང་སའི་": 6723,
      "སྐུལ་ཁྲིད": 6724,
      "ལག་ཏུ": 6725,
      "་སྲུང་སྐྱོང་དང་": 6726,
      "སྲིད་འཛིན": 6727,
      "་རླབས་པོ་ཆེ": 6728,
      "▁སློབ་གསོའི་": 6729,
      "་གཏོང་དགོས་པ་དང་": 6730,
      "ཀྲུའུ་རིན་གཞོན་པ": 6731,
      "2009": 6732,
      "▁གཞི་རྩའི་": 6733,
      "དབྱིན": 6734,
      "་འདྲ་མིན": 6735,
      "སྡོད་དམངས་ཀྱི་": 6736,
      "▁ལོ་རྒྱུས་ཀྱི་": 6737,
      "▁རྒྱལ": 6738,
      "་པང": 6739,
      "མདོག": 6740,
      "72": 6741,
      "གཡས": 6742,
      "བཙོན": 6743,
      "དྲང་གཞག": 6744,
      "ཕྱོགས་ལ་": 6745,
      "འཚོགས": 6746,
      "དུས་རབས་གསར་བའི་": 6747,
      "ཁ་ཟས": 6748,
      "ho": 6749,
      "ཐེག་པ": 6750,
      "ཧྥ་རན་སིའི་": 6751,
      "དཔོན་རིགས": 6752,
      "་དཀྲོལ": 6753,
      "མ་གནས": 6754,
      "་བརྒྱུད་བསྒྲགས": 6755,
      "དུས་ལྟར་": 6756,
      "ཞན་ཆ": 6757,
      "▁མེ་ཏོག": 6758,
      "ཡར": 6759,
      "་བཟོ་སྐྲུན": 6760,
      "་རང་ཉིད་ཀྱི་": 6761,
      "སྒྱུར་བཅོས་ཀྱི་": 6762,
      "ལོ་མ": 6763,
      "ཞིང་ཕྱུགས་": 6764,
      "སྡོད་གནས": 6765,
      "་བྱས་ཚུལ": 6766,
      "ལས་བྱེད་མི་སྣ": 6767,
      "བདམས": 6768,
      "དབྱིན་ཡིག": 6769,
      "གཟིགས་སྐྱོང": 6770,
      "་བོས": 6771,
      "▁ཤར": 6772,
      "ཡས་མས": 6773,
      "་ངོས་ཀྱི་": 6774,
      "གུང": 6775,
      "པཎ་ཆེན་རིན་པོ་ཆེ": 6776,
      "འི་ཡུལ": 6777,
      "ལས་སྒོའི་": 6778,
      "ཤིས": 6779,
      "ལོ་སར": 6780,
      "མ་འོངས་པའི་": 6781,
      "སློབ་ཁང": 6782,
      "na": 6783,
      "ལེགས་བཅོས": 6784,
      "་གང་ལ": 6785,
      "བྱེད་ཐབས་སྤྱད་དེ": 6786,
      "་འགུགས": 6787,
      "ང་དང་": 6788,
      "▁དངོས": 6789,
      "རྒྱལ་ཁམས": 6790,
      "རང་ངོས་ཀྱི་": 6791,
      "Ma": 6792,
      "ent": 6793,
      "་དྲིས": 6794,
      "་བྱ་": 6795,
      "འི་ཙུང་ཐུང": 6796,
      "་དབུས": 6797,
      "རྒྱས་བཤད": 6798,
      "གཟུངས": 6799,
      "་བརྩིས": 6800,
      "གད": 6801,
      "་ཞིག་ཀྱང་རེད": 6802,
      "བགྲོ་གླེང་": 6803,
      "wikinews": 6804,
      "▁ཐོན་ལས་": 6805,
      "vi": 6806,
      "གཅིག་གྱུར་གྱིས་": 6807,
      "་ཀུན་ལ": 6808,
      "མར་ཁེ་སི་རིང་ལུ": 6809,
      "་བརྒྱུད་ནས": 6810,
      "་ཞག": 6811,
      "་དཀྱིལ": 6812,
      "▁ངེད་དྲ་བ་": 6813,
      "གཞུང་ལས་ཁང་གི་": 6814,
      "་བསྡུར": 6815,
      "མི་དམངས་སྨན་ཁང": 6816,
      "་དུ་ཕེབས": 6817,
      "་ཀའོ": 6818,
      "་གྲུབ་པའི་": 6819,
      "་བཅུ་གཅིག་པའི་": 6820,
      "བཅིངས་འགྲོལ་དམག": 6821,
      "ཏང་གི་སྒྲིག་ཡིག": 6822,
      "་པར་འགྱུར": 6823,
      "་དང་ཆབས་ཅིག": 6824,
      "ལྗོན་ཤིང": 6825,
      "་ཡིན་མོད": 6826,
      "ཞིང་ལས": 6827,
      "རོགས་དངུལ": 6828,
      "te": 6829,
      "་གུང": 6830,
      "་འགྲན་སྡུར": 6831,
      "་བཅོམ": 6832,
      ":16": 6833,
      "གདན་ཞུའི་": 6834,
      "གཟབ་ནན": 6835,
      "མྱ་ངན": 6836,
      "ང་རྒྱལ": 6837,
      "་ཐེངས་གཅིག": 6838,
      "▁སྒོ": 6839,
      "དར་གྱི་ཀྲུང་གོའི": 6840,
      "དགེ་བ": 6841,
      "་སྟེར་བ": 6842,
      "དཔེ་སྐྲུན": 6843,
      "ཡོངས་ཀྱི་": 6844,
      "ཀློག་པ་པོ": 6845,
      "དཔེ་རྙིང": 6846,
      "་ཇེ་ཆེར་གཏོང་བ": 6847,
      "་སྨུག": 6848,
      "གུས": 6849,
      "གླུ་དབྱངས": 6850,
      "ལམ་བུའི་ཐོག་": 6851,
      "▁དེའང་": 6852,
      "་དབར་གྱི་": 6853,
      "ཧྭ": 6854,
      "་རྒྱག་རྒྱུ": 6855,
      "ས་མིང": 6856,
      "ས་བསྒྱུར": 6857,
      "་མཁན་ལ་": 6858,
      "བོད་ལྗོངས་སུ་": 6859,
      "ས་པ་དང་": 6860,
      "་བསྐྲུན་ནས་": 6861,
      "ཕྱུག་འགྱུར་གྱི་": 6862,
      "་རྒྱ་སྐྱེད": 6863,
      "འི་དུས་སུ་": 6864,
      "་བྱས་ཚེ": 6865,
      "ཚན་ཞིབ་": 6866,
      "ཕུལ་བྱུང་གི་": 6867,
      "་ཁཱ": 6868,
      "སླེབས": 6869,
      "▁ཁྲིམས": 6870,
      "བཀྲ་ཤིས་བདེ་ལེགས": 6871,
      "▁མཚོ་སྔོན": 6872,
      "སྐྱེ་བ": 6873,
      "་ཞིག་ཡོད་པ": 6874,
      "དཔྱད་འདེམས": 6875,
      "གཡུལ": 6876,
      "གྱོད་གཞི་": 6877,
      "ངེས་པར་": 6878,
      "ཤེས་པ": 6879,
      "དབྱིན་ཇི": 6880,
      "་སྙན་ཞུ": 6881,
      "་འབུལ་བ": 6882,
      "་ག་གེ་མོ": 6883,
      "ཏང་གི་འགོ་ཁྲིད": 6884,
      "་ཨུ་ཡོན་ཀྲང་": 6885,
      "ཚོགས་འདུའི་": 6886,
      "▁ཞེས་": 6887,
      "འཛུགས": 6888,
      "སྔོ": 6889,
      "་ཐོན་ཁུངས": 6890,
      "='": 6891,
      "་མང་པོ་ཞིག་གིས་": 6892,
      "་བཤུས": 6893,
      "་དཀྱུས་མ": 6894,
      "རྩལ": 6895,
      "ཐོན་པའི་": 6896,
      "ཐག": 6897,
      "རྒྱན་ཆ": 6898,
      "་རྣམ་དག": 6899,
      "་ལས་ཀ": 6900,
      "ཆེད་སྤྱོད་": 6901,
      "་དགེ་བཤེས": 6902,
      "སྔོ་ཚལ་": 6903,
      "་ཡས": 6904,
      "་མོང": 6905,
      "་ཏིས": 6906,
      "་ངོས་སུ་": 6907,
      "་མཆོད་རྟེན": 6908,
      "་ཀུན་ཏུ": 6909,
      "༤༩": 6910,
      "་མཁན་དང་": 6911,
      "གླིང་ཕྲན": 6912,
      "ལག་ལེན་": 6913,
      "་སྲུང་སྐྱོབ་": 6914,
      "700": 6915,
      "་ཆུང་བའི་": 6916,
      "con": 6917,
      "་ཝུའེ": 6918,
      "་ཅོག": 6919,
      "་སློབ་ཆེན": 6920,
      "བརྒྱ་ཆ་": 6921,
      "་ལ་ཕན": 6922,
      "་བྱ་ཐབས": 6923,
      "ར་སྐུལ་འདེད་བཏང": 6924,
      "ཉིན་མཚན": 6925,
      "་སོང་བའི་": 6926,
      "▁དེ་དུས་": 6927,
      "ཚོམས་ཆེན": 6928,
      "▁འདི་ལོའི་": 6929,
      "་འདོད་ཡོད": 6930,
      "ན་ནིང་": 6931,
      "འདུ་ཐེངས་དྲུག་པ": 6932,
      "་སྨི་": 6933,
      "▁སྟོང": 6934,
      "་ཁྱོན": 6935,
      "▁ཨེ": 6936,
      "་མིའི་": 6937,
      "་གསར་པ་": 6938,
      "་བླངས་ནས་": 6939,
      "ཉིན་གྱི་སྔ་དྲོར": 6940,
      "་སུམ་བརྒྱ": 6941,
      "རིས་བར་འཁྱམས་": 6942,
      "གོང་གསལ་": 6943,
      "ཀློག": 6944,
      "་འདེབས་འཛུགས": 6945,
      "83": 6946,
      "བྱེ་བྲག་གི་": 6947,
      "གཞུང་ལམ་གྱི་": 6948,
      "་ག་ལ": 6949,
      "་རྟེན་": 6950,
      "་ལྷའི་": 6951,
      "་ནང་འདྲེན": 6952,
      "ཀུང་སིའི་": 6953,
      "Y": 6954,
      "་ཕྱེས": 6955,
      "་ཆེན་མོ་": 6956,
      "ས་སྐྱ": 6957,
      "▁དེ་བཞིན་དུ་": 6958,
      "་ཕལ་ཆེར་": 6959,
      "་ལུགས་": 6960,
      "་འགའ་ཤས": 6961,
      "་བཅར": 6962,
      "་འདང": 6963,
      "བསྡུས་པའི་": 6964,
      "ཕུགས": 6965,
      "ལས་བརྒལ": 6966,
      "མགོ་ཁྲིད་": 6967,
      "འདོད་པ": 6968,
      "འབུམ": 6969,
      "མཐོང་ཆེན": 6970,
      "མིང་ལ": 6971,
      "འདུ་ཤེས་": 6972,
      "བལྟས་ན་": 6973,
      "སྐུ་གཤེགས": 6974,
      "དབང་ཕྱུག": 6975,
      "རྒྱལ་སྲིད": 6976,
      "ation": 6977,
      "མདོ་སྡེ": 6978,
      "ཁྲི་སྲོང་ལྡེ་བཙན": 6979,
      "༥༨": 6980,
      "ར་ཞུགས་པའི་": 6981,
      "དོན་འཁྱོལ་བྱེད་པ": 6982,
      "་བཟོ་གྲྭ": 6983,
      "དཔལ་ལྡན་": 6984,
      "་བསྐུལ": 6985,
      "འདོད་ཚུལ": 6986,
      "གནད་དོན་གལ་ཆེན": 6987,
      "་གཉིས་ལས": 6988,
      "རྒྱུན་འཁྱོངས": 6989,
      "་མཛད་པའི་": 6990,
      "▁རྒྱལ་ཡོངས་སྲིད་": 6991,
      "་ལ་རོགས་སྐྱོར": 6992,
      "་གྲུབ་ཡོད": 6993,
      "་དྲགས་པ": 6994,
      "ལས་དོན་ཁག": 6995,
      "་འཆར་ཟིན": 6996,
      "་གསུམ་དུ": 6997,
      "་དོན་གཉེར": 6998,
      "་དྲན་པ": 6999,
      "་ཏུན": 7000,
      "ཆེད་དམིགས་": 7001,
      "▁ང་རང་": 7002,
      "གཏིང་ཟབ": 7003,
      "སྤེལ་བ": 7004,
      "་མི་བྱེད": 7005,
      "་གཙོ་སྐྱོང་གནང་བ": 7006,
      "༣༥": 7007,
      "▁198": 7008,
      "་ཏུན་ཁྲི་": 7009,
      "ཁ་ལོ་བ": 7010,
      "་འདི་ལ": 7011,
      "་སྡོད་": 7012,
      "འབྲུ་རིགས": 7013,
      "དགེ་བཤེས": 7014,
      "གསོ་སྐྱོང": 7015,
      "ལྷུ་ཚིགས": 7016,
      "གསོ་རིག": 7017,
      "་ཕག": 7018,
      "དམ་འཛིན་ཡག་པོ": 7019,
      "་བཏོད": 7020,
      "་བདག་": 7021,
      "ཕ་ཡུལ་གྱི་": 7022,
      "ལྷན་ཚོགས་ཀྱི་": 7023,
      "▁དེ་དང་ཆབས་ཅིག་": 7024,
      "དབང་དུ": 7025,
      "་རྒྱལ་པོའི་": 7026,
      "ཤིན་ཏུ་": 7027,
      "་མ་ཡིན་པར་": 7028,
      "རྐྱང": 7029,
      "༣༣": 7030,
      "ཉེ་ལམ་": 7031,
      "ཞུགས": 7032,
      "་བཀག་འགོག": 7033,
      "བོད་ཞི་བས་བཅིངས་": 7034,
      "ཉིན་གྱི་ཕྱི་དྲོ་": 7035,
      "་ལ་ཟེར": 7036,
      "་ལེགས་པོ་ཞིག": 7037,
      "སྲིད་གྲོས་ཨུ་ཡོན": 7038,
      "▁ང་": 7039,
      "ལམ་ལུགས་དང་": 7040,
      "་ཆས་": 7041,
      "་སྐྱོང་བ": 7042,
      "་ཤན": 7043,
      "ཧོར": 7044,
      "ངུ": 7045,
      "བཙན་འཛུལ": 7046,
      "རྒྱུད་ཀྱི་": 7047,
      "ལྟེ་བར": 7048,
      "་འགོད་པ": 7049,
      "འདམ": 7050,
      "▁གློག": 7051,
      "ལོ་འཁོར": 7052,
      "༥༩": 7053,
      "འི་ལས་དོན": 7054,
      "མདོ་དབུས་མཐོ་སྒང": 7055,
      "་ལྟ་བ": 7056,
      "མཚེའུ": 7057,
      "་གྲྭ་ཚང": 7058,
      "་དགེ་རྒན": 7059,
      "ནན་ཏན་སྒོས་": 7060,
      "དང་མཉམ་དུ་": 7061,
      "་བཅུ་པ": 7062,
      "སྲོག་ཆགས་ཀྱི་": 7063,
      "ཁྲིམས་ཁང": 7064,
      "བསྡོམས་འབོར": 7065,
      "་བྱུང་སྟེ": 7066,
      "FONT": 7067,
      "▁ཉེ་བའི་ལོ་འགའི་": 7068,
      "རྩལ་ནུས": 7069,
      "་སོགས་ཡོད": 7070,
      "▁མིག": 7071,
      "▁ཁོང་ཚོས་": 7072,
      "ཞིང་ས": 7073,
      "་བྱེད་རྒྱུར་": 7074,
      "་ལེན་པའི་": 7075,
      "་དང་སྦྲགས་": 7076,
      "བརྡ་ཐོ": 7077,
      "རྒྱང་རིང": 7078,
      "སྤེལ་དུས": 7079,
      "དབུལ་སྒྲོལ": 7080,
      "ཚ་བ": 7081,
      "་ཕྱུགས": 7082,
      "སྤྱི་ལེ་": 7083,
      "་བར་གྱི་འབྲེལ་བ": 7084,
      "ཀྲུང་ཧྭའི་": 7085,
      "བསྡོམས་རྩིས་": 7086,
      "་མ་རེད": 7087,
      "་ནས་ཐོན་པའི་": 7088,
      "་སྤྲོས": 7089,
      "འགྱིག": 7090,
      "སྐྱེ་ཁམས": 7091,
      "་སོགས་ཀྱི་ཐད་": 7092,
      "ས་ཀྱང": 7093,
      "▁མང": 7094,
      "བྷ": 7095,
      "ཕྱུག་འགྱུར་": 7096,
      "▁རང་རེའི་": 7097,
      "གསོལ": 7098,
      "་ཆེན་པོ་": 7099,
      "་གཏང་བ": 7100,
      "སྐད་ཆའི་": 7101,
      "འཕྲོད་བསྟེན་ཁང": 7102,
      "་དཔེ་སྐྲུན་ཁང་": 7103,
      "དབང་བོ་སྐྱོན་ཅན": 7104,
      "ལྗོངས་མི་དམངས་": 7105,
      "་རྣམས་ནི་": 7106,
      "་ཕོད": 7107,
      "87": 7108,
      "ist": 7109,
      "་དུ་གཏོང་དགོས": 7110,
      "▁བྲག": 7111,
      "་བཞི་པའི་": 7112,
      "92": 7113,
      "་ལས་དོན་ལ་": 7114,
      "་སྲིད་ཇུས": 7115,
      "བགྲེས་སོང": 7116,
      "་ཞིག་ཡིན་ལ་": 7117,
      "་སྐུ་ཕྲེང": 7118,
      "་ཁེབས": 7119,
      "བརྩི་བཀུར": 7120,
      "ཁོ་རང": 7121,
      "དུ་བ": 7122,
      "་ཤོ": 7123,
      "་ཧའོ": 7124,
      "སྔར་གྱི་": 7125,
      "ཞེས་གསུངས": 7126,
      "▁ཡིག་བསྒྱུར": 7127,
      "་དང་བཅས་པའི་": 7128,
      "ལྡོག": 7129,
      "བསླབ": 7130,
      "ཞིང་འབྲོག་པ་": 7131,
      "་སྔོན་གྱི་": 7132,
      "་ངོམ": 7133,
      "་བཅག": 7134,
      "▁ས་གནས་དེ་གའི་": 7135,
      "རྣམ་བཤད": 7136,
      "སྔོན་ཆད་ཀྱི་": 7137,
      "པཎ": 7138,
      "གླུ་བ": 7139,
      "་དོགས": 7140,
      "་ལག་ལེན་བསྟར་བ": 7141,
      "་ཚད་ཡོད་ཀུང་སི": 7142,
      "དམངས་སྲིད་": 7143,
      "་གཅིག་པ": 7144,
      "་བཟང་བོར་བསྒྲུབ": 7145,
      "དེང": 7146,
      "གདུང": 7147,
      "་ཚོང་ཁང": 7148,
      "་འཕྲིན་ལས": 7149,
      "ཥ": 7150,
      "དམིགས་ཚད་": 7151,
      "དུས་འཁོར": 7152,
      "གུང་ཁྲན་ཏང་": 7153,
      "ལས་དོན་མི་སྣ": 7154,
      "མཐར་ཕྱིན་སློབ་མ": 7155,
      "▁དེའི་ཁྲོད་": 7156,
      "་ཙམ་ལས་": 7157,
      "༥༧": 7158,
      "་ཡུལ་དུ": 7159,
      "རང་གཤིས": 7160,
      "་གཏོད་རྒྱུ": 7161,
      "་དགོད": 7162,
      "pae": 7163,
      "་པར་བྱས": 7164,
      "་ཁྲེན": 7165,
      "༤༦": 7166,
      "▁ཁྱོད་ཀྱི་": 7167,
      "ས་གནས་སོ་སོ": 7168,
      "འདོན": 7169,
      "ཡིག་རྙིང": 7170,
      "འགན་འཁྲི་འཁུར": 7171,
      "་ཕྱོགས་": 7172,
      "▁སྟག": 7173,
      "བསྙེན་བཀུར": 7174,
      "ནང་ནས་": 7175,
      "་འོད་ཟེར": 7176,
      "་ཡིག་": 7177,
      "་ཀྲ": 7178,
      "▁སི་ཁྲོན": 7179,
      "་གཙང་སེལ": 7180,
      "▁སྲིད་འཛིན་": 7181,
      "་མཉམ་དུ་": 7182,
      "ཧྲི": 7183,
      "གཟིམ": 7184,
      "རོགས": 7185,
      "བདེ་སྐྱིད་": 7186,
      "མཐུན་ཚོགས": 7187,
      "▁མཚོ་སྔོན་གྱིས་": 7188,
      "འགྲན་སློང": 7189,
      "་ཐའེ": 7190,
      "123": 7191,
      "་རིང་ལུགས": 7192,
      "འདྲ་པར": 7193,
      "རི་ཆུ": 7194,
      "་རྩེ་གྲ": 7195,
      "0.50%": 7196,
      "▁གསུམ་ནི་": 7197,
      "་ཇེ་དྲག་ཏུ་གཏོང": 7198,
      "གཏམ་དཔེ": 7199,
      "▁མཛའ་འབྲེལ་དྲ་བ": 7200,
      "་བྱེད་ཀྱི": 7201,
      "་སློབ་དཔོན": 7202,
      "ཟུང་འབྲེལ་བྱས་ནས": 7203,
      "བོད་ཡུལ": 7204,
      "་ཡུག": 7205,
      "སྡོམ": 7206,
      "འཚོ་བ་དང་": 7207,
      "ཚན་པའི་": 7208,
      "ཁྲེང་ཏུའུ": 7209,
      "ཏི": 7210,
      "སྦྱོར": 7211,
      "དབང་གིས་": 7212,
      "མཁོ་འདོན": 7213,
      "▁གངས": 7214,
      "རྣ་བ": 7215,
      "་བཞིན་ཡོད་པ": 7216,
      "མགོ་གཙོ": 7217,
      "▁སུ": 7218,
      "་ཡོངས་སུ་": 7219,
      "བསམ་འཆར་དང་": 7220,
      "ཞུ": 7221,
      "གྲོན་ཆུང": 7222,
      "དང་སྐར་མ་": 7223,
      "▁སྔོན་ཆད་": 7224,
      "སྐྱོན་བྲལ": 7225,
      "་རྒྱུ་དེ་ཡིན": 7226,
      "བཞག་པའི་": 7227,
      "དེ་ཡང་": 7228,
      "་བཞུར": 7229,
      "ཞིང་ཕྱུགས་ལས་": 7230,
      "་གསོན": 7231,
      "་ངེས་པར་དུ": 7232,
      "་ཌ": 7233,
      "ལྟད་མོ": 7234,
      "གཞོན་ནུ་ལོ་ཆུང": 7235,
      "དང་ཐོག་": 7236,
      "འི་སྟེང་དུ": 7237,
      "གྲ": 7238,
      "་པའི་ཚེ": 7239,
      "▁199": 7240,
      "དྲ་ལམ་རྒྱང་སྒྲོག": 7241,
      "གས་ཀྱི་འཐུས་མི": 7242,
      "ཁྱོད་ཀྱིས་": 7243,
      "མཐར": 7244,
      "འི་ཁ": 7245,
      "▁དེ་ལ": 7246,
      "▁ཝ": 7247,
      "▁མཉམ་དུ་": 7248,
      "▁ས་གནས": 7249,
      "ས་བབ": 7250,
      "བཟོས་པའི་": 7251,
      "རྗེས་དྲན": 7252,
      "མིང་ཚིག": 7253,
      "ཞིང་པ": 7254,
      "་ཡིན་ཞེས་བཤད": 7255,
      "དབྱེ": 7256,
      "དེ་ལྟར་བཤད": 7257,
      "བསྒྱུར་བཅོས་": 7258,
      "མཉམ་འགུལ": 7259,
      "འི་བར་གྱི་": 7260,
      "མེ་འཁོར་": 7261,
      "དལ": 7262,
      "▁རང་ཉིད་ཀྱི་": 7263,
      "་གོང་མའི་": 7264,
      "སྔ་མོ་ནས་": 7265,
      "་གཏན་ཁེལ": 7266,
      "▁རང་བྱུང་": 7267,
      "་ཞེས་བརྗོད": 7268,
      "་སྒྲུབ་": 7269,
      "་ཆེ་རུ་གཏོང་རྒྱུ": 7270,
      "དཔེ་ཀློག": 7271,
      "71": 7272,
      "་ལ་ཕན་པ": 7273,
      "ཤེལ": 7274,
      "་ཐབ": 7275,
      "་ཡང་ཡིན": 7276,
      "学": 7277,
      "ཆབ་མདོའི་": 7278,
      "ཡོན": 7279,
      "་ལ་གནོད་པ": 7280,
      "་འདུག་པས": 7281,
      "▁རྨང་གཞིའི་": 7282,
      "མ་འོངས་པ": 7283,
      "གསར་རྩོམ": 7284,
      "འབྲོག་ལས་": 7285,
      "་འགོག་བཅོས": 7286,
      "དེ་རིང་": 7287,
      "་གྱིན་ཡོད": 7288,
      "བར་ཐག": 7289,
      "རྒྱ་ནག་གི་": 7290,
      "་ལོགས་སུ": 7291,
      "ཉེ་བའི་": 7292,
      "་ཅུ": 7293,
      "གདམ་ག": 7294,
      "དགོང་མོ": 7295,
      "རྒྱ་ནག": 7296,
      "གཡག": 7297,
      "མཁས་པའི་": 7298,
      "▁ཨོ": 7299,
      "རིགས་རྒྱུད": 7300,
      "ཁོང་ཚོས་": 7301,
      "ཞུས": 7302,
      "▁སེམས་ཀྱི་ཉི་ཟླ": 7303,
      "་བྱེད་པ་དེ་": 7304,
      "སྐུ་བརྙན": 7305,
      "ཚབ་བྱེད": 7306,
      "་གཏོང་མཁན": 7307,
      "▁ད་ལོ་": 7308,
      "61": 7309,
      "ནེ་པ་ལའི་": 7310,
      "84": 7311,
      "སྒྲུབ་པ": 7312,
      "དབྱི": 7313,
      "དོགས་པ": 7314,
      "་ལུགས་མཐུན": 7315,
      "ཡབ": 7316,
      "ཨ་རི": 7317,
      "▁གཙང": 7318,
      "བྱམས་བརྩེའི་": 7319,
      "་བྱུང་བས": 7320,
      "གོང་": 7321,
      "་སྟར": 7322,
      "ཙུང་ཐུང་": 7323,
      "་སི་ཐན": 7324,
      "སྨན་པའི་": 7325,
      "་ཚོད་ལྟ": 7326,
      "▁མི་དམངས་མང་ཚོགས": 7327,
      "་ཧྲུའུ་ཅི": 7328,
      "་ཡོང་བ་བྱེད་དགོས": 7329,
      "ཁོ་ཚོས་": 7330,
      "་ལྷག་མ": 7331,
      "་སྲོག": 7332,
      "ཕྱོགས་སྟོན": 7333,
      "་དན": 7334,
      "▁ཉིན་ཤས་གོང་": 7335,
      "་སྤྱད་པ": 7336,
      "▁བློ་བརྟན་འགྱུར་": 7337,
      "་བྱེད་ཚུལ": 7338,
      "ཕྱོགས་དང་མཉམ་དུ་": 7339,
      "་གྲས": 7340,
      "ཚན་རྩལ་གསར་གཏོད": 7341,
      "▁ཁྲི": 7342,
      "་ནད་": 7343,
      "་ཞི་བ": 7344,
      "གཟེངས་བསྟོད་": 7345,
      "▁མང་ཚོགས": 7346,
      "འདུག": 7347,
      "ཕྱི་རོལ": 7348,
      "ཚང་མ": 7349,
      "པར་ལེན": 7350,
      "་ཀྲེན": 7351,
      "་ཚོགས་འདུ་": 7352,
      "ས་ཁོངས་ཀྱི་": 7353,
      "འཚོ་སྡོད": 7354,
      "འི་བྱེད་སྒོ": 7355,
      "རྒྱལ་ཡོངས་མི་": 7356,
      "སྨ": 7357,
      "ཐོན་ཁུངས་ཀྱི་": 7358,
      "འཚོ་བའི་ཆ་རྐྱེན": 7359,
      "ལ་བརྟེན་ནས་": 7360,
      "▁ད་ནི་": 7361,
      "ལོ་རེའི་": 7362,
      "བདག་ཉིད": 7363,
      "▁རྒྱལ་ཁབ": 7364,
      "་ཐུབ་བསྟན": 7365,
      "་ཀུན་ལ་": 7366,
      "མཛོ": 7367,
      "་མི་ཐུབ་པའི་": 7368,
      "རྒས": 7369,
      "་ཤོར་བའི་": 7370,
      "་མཁས་ཅན": 7371,
      "་ས་དང་": 7372,
      "དེས་": 7373,
      "་མི་རིགས་": 7374,
      "བྱ་སྤྱོད་": 7375,
      "་གཅིག་སྒྲིལ": 7376,
      "སྐད་བརྡ": 7377,
      "་དུ་ཡོད་པའི་": 7378,
      "༤༥": 7379,
      "བྲན": 7380,
      "འཆད་ཉན": 7381,
      "རྨང": 7382,
      "ངོ་ཚ": 7383,
      "བྲག་ཕུག": 7384,
      "བདུན": 7385,
      "ཧྲང་ཧེ": 7386,
      "་སྔར་བས་ཆེ་རུ": 7387,
      "འོད་སྣང": 7388,
      "ཆེད་ལས་ཀྱི་": 7389,
      "སྐར་གྲངས": 7390,
      "་གམ་": 7391,
      "་ལས་སྣོན": 7392,
      "ི་ཚོགས་རིང་ལུགས་": 7393,
      "ས་ཁེངས": 7394,
      "མིང་བརྡ": 7395,
      "་སྤར": 7396,
      "་ལྡན་པའི་ངང་": 7397,
      "་ཁོང་གི་": 7398,
      "་གཙོ་བོ་དང་": 7399,
      "་དུ་གནས་པའི་": 7400,
      "གནས་མཆོག": 7401,
      "་བཏོད་ཡོད": 7402,
      "་ལྡང": 7403,
      "་མཐར་": 7404,
      "་དཔལ་ལྡན": 7405,
      "ཁ་ཕྲལ་ལ་ངོ་རྒོལ": 7406,
      "ལས་གཉེར": 7407,
      "་ཐང་གི་": 7408,
      "་ཀན": 7409,
      "་གཏུག": 7410,
      "ནག": 7411,
      "▁མདོར་ན་": 7412,
      "ཅུང་": 7413,
      "་དང་འབྲེལ་བ་ཡོད": 7414,
      "རྗེ་ཙོང་ཁ་པ": 7415,
      "་ཕྱིའི་": 7416,
      "▁ཅེས": 7417,
      "དཀའ་ཚེགས": 7418,
      "འི་བུ": 7419,
      "བསྟོད་པ": 7420,
      "་མཛད་དེ་": 7421,
      "་ཡིན་པ་": 7422,
      "རྫས་འགྱུར་": 7423,
      "་ཤོས་ཀྱི་": 7424,
      "ཁེར་རྐྱང": 7425,
      "འབབ་འཕར་": 7426,
      "q": 7427,
      "དམངས་": 7428,
      "མི་སེམས": 7429,
      "་ཐག་གཅོད་བྱེད་པ": 7430,
      "གདམས་པ": 7431,
      "་བཀུག": 7432,
      "བོད་ཀྱི་ལོ་གསར": 7433,
      "རང་ལྗོངས་ཀྱིས་": 7434,
      "སོན": 7435,
      "་དང་བསྡུར་ན": 7436,
      "ཉེར": 7437,
      "འབུ": 7438,
      "་བསྒྲུབ་པ": 7439,
      "་ཐེག": 7440,
      "འི་རྒྱལ་ཡོངས་": 7441,
      "་ལ་ཁ": 7442,
      "༤༨": 7443,
      "ཞིང་འབྲོག་ལས་ཀྱི": 7444,
      "མཇལ": 7445,
      "ཧྲུའུ་ཅི་གཞོན་པ་": 7446,
      "་སོང་ནས་": 7447,
      "་སྲུང་སྐྱོང་": 7448,
      "་གཞིར་བཟུང་ནས་": 7449,
      "文": 7450,
      "་འདུས་པའི་": 7451,
      "རུ་མི": 7452,
      "་མ་ཡིན་པར": 7453,
      "ཐོག་མའི་བསམ་འདུན": 7454,
      "ནང་དོན་": 7455,
      "་ཧྲུའུ་ཅི་གཞོན་པ": 7456,
      "སྤྲེའུ": 7457,
      "སྤྱི་འདོམས": 7458,
      "ཞིང་ལས་དང་": 7459,
      "་ཡིན་ཞེས": 7460,
      "སྐྱོན་བརྗོད": 7461,
      "་བ་ནི་": 7462,
      "▁ཕྱག": 7463,
      "་རྒྱ་མ": 7464,
      "་གསོ་སྤེལ": 7465,
      "རང་བྱུང་ཁམས": 7466,
      "་རྒྱུད་": 7467,
      "རྒྱ་ཁྱོན་": 7468,
      "་མནན": 7469,
      "སྨི": 7470,
      "ཧོ": 7471,
      "་གནང་རྒྱུ": 7472,
      "ཡར་ཞུ": 7473,
      "དཔལ་འབར": 7474,
      "་འདུན": 7475,
      "་འབྲེལ་": 7476,
      "རང་ལ་": 7477,
      "▁བཞི་པ": 7478,
      "མེ་གསོད་": 7479,
      "་འཐུ": 7480,
      "དུར": 7481,
      "མི་ཆོས་": 7482,
      "ཚོགས་འདུ་འཚོགས་པ": 7483,
      "རོང": 7484,
      "ཀྱིས": 7485,
      "བདག་དབང": 7486,
      "གཤམ": 7487,
      "་བྱས་པའི་གནས་ཚུལ": 7488,
      "གྲོས་ཚོགས་སྟེང་": 7489,
      "དུས་ཡུན་ཉིན": 7490,
      "▁བཞི་ནས་": 7491,
      "་བརྗོད་པའི་": 7492,
      "ར་མ་ཟད": 7493,
      "▁ཀྲུང": 7494,
      "འདི་": 7495,
      "རྣམ་པ་གསར་བ": 7496,
      "འགོ་ཁྲིད་དང་": 7497,
      "ཁྲོད་དུ": 7498,
      "ق": 7499,
      "་སྦྲུལ": 7500,
      "ཁོངས": 7501,
      "དམངས་སྤྱོད་": 7502,
      "སྔོན་ཆད་": 7503,
      "སྒེར་གྱི་": 7504,
      "▁ཞི་ཅིན་ཕིང་གི་": 7505,
      "་སྤུན": 7506,
      "དམངས་ཡོངས་ཀྱི་": 7507,
      "བྱ་གཞག་ལ་": 7508,
      "་ཚང་མའི་": 7509,
      "▁སོ": 7510,
      "་དང་ཁ": 7511,
      "མྱུར་སྐྱོབ": 7512,
      "བྱེ་མ": 7513,
      "རྒྱུགས་ལེན": 7514,
      "་སིའི་": 7515,
      "་གཉིས་ལ": 7516,
      "དགེ་འདུན": 7517,
      "མཛད": 7518,
      "མདུན་ནས་": 7519,
      "སྙན་རྩོམ": 7520,
      "་དང་འཐུས་ཚང་དུ": 7521,
      "བོད་བཙན་པོའི་": 7522,
      "▁གཡང": 7523,
      "大": 7524,
      "་ད་ལྟ": 7525,
      "་ལྐོག": 7526,
      "་བྱུང་ན": 7527,
      "དེ་སྔ་": 7528,
      "གནད་དོན་ཐད་": 7529,
      "་གཞིས": 7530,
      "ཕུན་ཚོགས": 7531,
      "གཞུང་སྒྲུབ་ཁང་གི": 7532,
      "སློབ་བསྡུའི་": 7533,
      ")》": 7534,
      "ཐང་གའི་": 7535,
      "རོང་འབྲོག་ཁུལ": 7536,
      "▁སློབ་གྲྭའི་": 7537,
      "་ཤར་གཏོང": 7538,
      "ལྷན་ཚོགས": 7539,
      "་པར་སྙམ": 7540,
      "ལྗོངས་ཏང་ཨུད་": 7541,
      "འཕར་ཚད": 7542,
      "་སོགས་ཀྱིས": 7543,
      "ma": 7544,
      "་བླུགས": 7545,
      "་གང་ཡོད": 7546,
      "ཆེས་མཐོའི་": 7547,
      "ཤེས་ཡོན": 7548,
      "་འགོ་བརྩམས": 7549,
      "བློ་རིག": 7550,
      "་ཧྲིལ་པོར་": 7551,
      "་གང་སར": 7552,
      "ཁྲོ": 7553,
      "བལ": 7554,
      "ཐིང་": 7555,
      "▁ཡུལ་ཤུལ་": 7556,
      "ལུས་ཕུང": 7557,
      "་ལ་ཤུགས་སྣོན་དང་": 7558,
      "ཡུལ་དེའི་": 7559,
      "སྐུལ་མ": 7560,
      "▁གསར་འགོད་པ": 7561,
      "་གླིང་དུ་": 7562,
      "་བཞད": 7563,
      "གཞི་རྩ": 7564,
      "་གཉིད": 7565,
      "སློབ་ཐོན་སློབ་མ": 7566,
      "་འགྲོས": 7567,
      "ལག་བསྟར་བྱེད་པ": 7568,
      "་གཅོད་པ": 7569,
      "ཞིབ་བཤེར་དང་": 7570,
      "་སེང་གེ": 7571,
      "ས་ཀྱིས་": 7572,
      "་བྱ་ཡུལ་གྱི་": 7573,
      "སྒྲོག": 7574,
      "ཆུ་ཚད་མཐོར་འདེགས": 7575,
      "དངོས་གྲུབ": 7576,
      "སུ་": 7577,
      "་ཐོན་": 7578,
      "▁ཨ་མེ་རི་ཁའི་": 7579,
      "་དང་བཅས་": 7580,
      "་རའི་": 7581,
      "་ཉུང་བ": 7582,
      "དང་ལེན": 7583,
      "བྱང་ཆུབ་སེམས་དཔའ": 7584,
      "ནུས་ཁུངས་": 7585,
      "བཙུགས་པའི་": 7586,
      "འི་གོང་འཕེལ་ལྟ་བ": 7587,
      "་ནས་མི": 7588,
      "་མྱོང་མེད": 7589,
      "ne": 7590,
      "▁ཞིང་ཆེན་ཏང་ཨུ": 7591,
      "འབོད་སྐུལ": 7592,
      "ཕྱོགས་གཉིས་པོའི་": 7593,
      "་ལག་བསྟར་བྱེད": 7594,
      "་ཆགས་པར": 7595,
      "་བརྒྱ་ལྷག": 7596,
      "ཁྱབ་གདལ": 7597,
      "་རེ་རེར་": 7598,
      "མི་དམངས་ཤོག་སྒོར": 7599,
      "་ཤིག་ཏུ": 7600,
      "ང་ཚོས": 7601,
      "བོད་ཀྱི་རྩོམ་རིག": 7602,
      "་སྟོད་": 7603,
      "་ཁབ": 7604,
      "་ཚུན": 7605,
      "་ལྷུན་གྲུབ": 7606,
      "་རྒྱུན་མཐུད": 7607,
      "di": 7608,
      "བཞག": 7609,
      "འབྱོར": 7610,
      "་གསར་རྙིང": 7611,
      "ལས་གཏོད་": 7612,
      "ཚིག་གི་": 7613,
      "ཕན་བདེ": 7614,
      "་ཐུབ་པ་བྱུང་ཡོད": 7615,
      "བཙན་པོ་": 7616,
      "་གནོད": 7617,
      "་ནི་མི": 7618,
      "བྱམས": 7619,
      "་ཞོར": 7620,
      "་མཚེའུ": 7621,
      "དཔྱད་འཇོག": 7622,
      "་བརྩིགས": 7623,
      "དུད་ཁྱིམ": 7624,
      "འཁྱག": 7625,
      "་གཡོགས": 7626,
      "་ཐག་བཅད": 7627,
      "སྡོད་ཁང་གི་": 7628,
      "ཕེབས་ནས་": 7629,
      "རྒྱུན་ལྡན་གྱི་": 7630,
      "འགྲོ་ལུགས": 7631,
      "ལམ་ལུགས་ལག་བསྟར": 7632,
      "་རྩ་འཛུགས": 7633,
      "དམིགས་པ": 7634,
      "ཆེས་ཆེ་བའི་": 7635,
      "་དཔའ": 7636,
      "ཡོངས་སུ": 7637,
      "ཞིང་ཁ": 7638,
      "་བཏོན་པ་དང་": 7639,
      "ཚོར": 7640,
      "གདེང་ཚོད": 7641,
      "འཕྲིན་ཡིག": 7642,
      "ཁོ་མོའི་": 7643,
      "ཞིབ་དཔྱོད་ཁང་གི་": 7644,
      "▁མཚན": 7645,
      "༥༡": 7646,
      "་རྒྱུ་མེད": 7647,
      "་ནས་ཟླ་": 7648,
      "ིའི་": 7649,
      "ཨར་ལས": 7650,
      "འདི་ལོའི་": 7651,
      "ཀུན་གྱིས་": 7652,
      "▁རྣམ": 7653,
      "་སྟེང་དུ་": 7654,
      "དངོས་མང་": 7655,
      "་གང་ལེགས་བྱེད་པ": 7656,
      "་དུ་ཞུགས": 7657,
      "▁ཆང": 7658,
      "ལས་དོན་ཚོགས་འདུ": 7659,
      "འཚར་ལོངས": 7660,
      "་དང་པོ་": 7661,
      "༣༤": 7662,
      "▁དམག": 7663,
      "་མེར": 7664,
      "་དྲིལ་སྒྲོག": 7665,
      "་ཅེས་གསུངས": 7666,
      "དགུང་ལོ": 7667,
      "་རུ་ཁག་གིས་": 7668,
      "ཇོ": 7669,
      "སློབ་གྲྭས་": 7670,
      "འཕྲལ": 7671,
      "་སྲིད་པ": 7672,
      "ཆར་བ": 7673,
      "ལས་འགན་གཙོ་བོ": 7674,
      "་ཀྱིན": 7675,
      "ཉོན་མོངས": 7676,
      "དང་བླངས་པ": 7677,
      "རྫོང་ཡོངས་ཀྱི་": 7678,
      "བདག་གི་": 7679,
      "བྲེལ": 7680,
      "རྩིས་འཁོར": 7681,
      "ལྟ་བ་དང་": 7682,
      "་ཁྲོད་ནས་": 7683,
      "སྐབས་ཀྱི་": 7684,
      "སྤྱི་ཡོངས་": 7685,
      "་བྱུང་ན་": 7686,
      "་མོན": 7687,
      "་འགྲེམས": 7688,
      "འཇུག": 7689,
      "ཀྲུང་ལུགས་": 7690,
      "་བྱེད་ཆོག": 7691,
      "▁དབྱང": 7692,
      "ཐོབ་ཐང་": 7693,
      "བཟའ་བཅའི་": 7694,
      "བུ་བཅོལ་ཁང": 7695,
      "དུས་གསུམ": 7696,
      "ཏང་རྩ་འཛུགས་ཀྱི་": 7697,
      "་བྱེད་རྒྱུ་ནི་": 7698,
      "་རང་སྐྱོང་ལྗོངས་": 7699,
      "་པར་བྱ": 7700,
      "bd": 7701,
      "་མྱུར་པོ": 7702,
      "ས་སོ": 7703,
      "་བསྡུ་བ": 7704,
      "་བྱེད་པ་བཅས་ཀྱི་": 7705,
      "▁གྲོས་ཚོགས་ནས་": 7706,
      "་བུམ": 7707,
      "་ནགས": 7708,
      "དབུ་ཁྲིད": 7709,
      "་རུམ": 7710,
      "གྲེ": 7711,
      "་གླང": 7712,
      "དཔྱད་པ": 7713,
      "དབྱང་ཆབ་སྲིད་ཅུ": 7714,
      "ལས་དོན་དེ་": 7715,
      "་མཛད་སྒོ": 7716,
      "་ཐོན་པའི་": 7717,
      "དྲན་པ": 7718,
      "་གཅིག་ལ": 7719,
      "་དུ་འཇུག": 7720,
      "སྟེང་གི་": 7721,
      "མནའ": 7722,
      "གསར་སྐྲུན": 7723,
      "་རྙིང་བ": 7724,
      "གྲོང་ཚོའི": 7725,
      "་ཁག་གཅིག་": 7726,
      "་ཚུད་ཡོད": 7727,
      "་ཡོད་པར་མ་ཟད": 7728,
      "འབབ་འཕར": 7729,
      "སྣོད": 7730,
      "གྲྭ་བ": 7731,
      "་སོང་བ་དང་": 7732,
      "་བབས་པ": 7733,
      "ཆུང་དུས་ནས་": 7734,
      "▁ཚན་རྩལ་": 7735,
      "བུད་མེད་མཉམ་འབྲེ": 7736,
      "་པ་ཞིག་རེད": 7737,
      "དམ་ཚིག": 7738,
      "ལས་རིམ": 7739,
      "འི་འོག་": 7740,
      "་ལ་འཇུག": 7741,
      "འགྲེམས": 7742,
      "་ཤར་གཏོང་ཐུབ་པ": 7743,
      "འགག་རྩ": 7744,
      "རྒྱལ་རོང་": 7745,
      "་མདུན": 7746,
      "་སྤོར": 7747,
      "ལས་གནས་": 7748,
      "▁ཁྲིམས་སྐྱོང་": 7749,
      "༢༠༠": 7750,
      "ot": 7751,
      "་གཅིག་གིས": 7752,
      "་ཕྱོགས་བསྡུས": 7753,
      "ཁེ་སྤོགས": 7754,
      "་ལ་དཔྱད་པ": 7755,
      "་བཅོས་སྒྱུར": 7756,
      "་ཅི་ཡང": 7757,
      "བག": 7758,
      "རྒྱབ་སྐྱོར་བྱེད": 7759,
      "藏": 7760,
      "་ཧྲན་": 7761,
      "འཕྲིན": 7762,
      "་ཙམ་གྱིས་": 7763,
      "སྨན་རིན": 7764,
      "སྤྲ": 7765,
      "་ཅང་": 7766,
      "་གནས་ཚུལ": 7767,
      "་བསླབ": 7768,
      "མངའ་རིས་": 7769,
      "་གྷ": 7770,
      "ཤོག་བུ": 7771,
      "ངོ་རྒོལ་བྱེད་པའི": 7772,
      "་པོ་ཞིག": 7773,
      "▁བདེ": 7774,
      "་བཏགས་པ": 7775,
      "རང་འགུལ་གྱིས་": 7776,
      "་སུ་གཏོང་བ་དང་": 7777,
      "་སྔོན་མ": 7778,
      "་ཤུལ་བཞག་གི་": 7779,
      "་གཏོད་དགོས": 7780,
      "▁དབུལ་སྒྲོལ་": 7781,
      "ཁོར་ཡུག་དང་": 7782,
      "ྒྲིལ་ཡར་ཐོན་": 7783,
      "ཚེ་སྲོག་གི་": 7784,
      "མཐའ་འཁོར་དུ་": 7785,
      "▁ཤང": 7786,
      "་ཀའི་": 7787,
      "ཨང་རྟགས": 7788,
      "ཕན་ཡོན": 7789,
      "རྟོག་པ": 7790,
      "▁རྩ": 7791,
      "་ངར": 7792,
      "མི་གཤིས": 7793,
      "དར་ཆ": 7794,
      "དངུལ་ཁང་": 7795,
      "གཏེར་ཁ": 7796,
      "་དགོས་ཞེས་བསྟན": 7797,
      "སི་ཁྲོན": 7798,
      "་སྤོང": 7799,
      "་བསྟུད་མར": 7800,
      "▁ཆེས་": 7801,
      "་རྒྱས་པའི་": 7802,
      "མེ་ཟོན་": 7803,
      "དྲུང་དུ": 7804,
      "ཞབས་འདེགས་ཞུ": 7805,
      "ལམ་དུ": 7806,
      "མགོ་ཁྲིད་པ": 7807,
      "འཕེལ་རྒྱས་ཐད་": 7808,
      "་དགུ་པ": 7809,
      "མངོན་མིན་རིག་གནས": 7810,
      "གས་པ": 7811,
      "་པ་དེ་": 7812,
      "་དགོས་པ་མ་ཟད": 7813,
      "་ཞོར་": 7814,
      "ཞོར་དུ་": 7815,
      "སྲིད་གྲོས་ཀྱིས་": 7816,
      "་རྣ": 7817,
      "་ཞེས་གསུངས": 7818,
      "་ཀྱི་སྒོ་ནས་": 7819,
      "དགོས": 7820,
      "ཐེངས་གཅིག": 7821,
      "་ཡོད་པའི་སྒོ་ནས་": 7822,
      "སྤྲོ་བ": 7823,
      "སྤྲིན": 7824,
      "་རྒྱུན་ལས་ཨུ་ཡོན": 7825,
      "དོམ": 7826,
      "་སྤྲུལ་སྐུ": 7827,
      "▁ཁོ་མོས་": 7828,
      "ཁྲིམས་ཁང་གིས་": 7829,
      "་ངའི་": 7830,
      "་མཛད་ཅིང་": 7831,
      "རལ་གྲི": 7832,
      "མཆིན": 7833,
      "་ཟེར་ན": 7834,
      "སྒྲིག་ཆུང་": 7835,
      "་ཚད་དང་": 7836,
      "་བཏོད་པ": 7837,
      "ནས་ཚུལ་འབྱོར་གསལ": 7838,
      "་སྤྲོད་པ": 7839,
      "ཇུས": 7840,
      "འི་ལམ་ལུགས": 7841,
      "་མི་རུང": 7842,
      "ཞང་ཞུང་གི་": 7843,
      "་གཉིས་ཀ་": 7844,
      "གནད་འཁེལ་": 7845,
      "་དམ་": 7846,
      "བླ་མའི་": 7847,
      "་ལ་དམིགས་ཏེ་": 7848,
      "རྩྭ་ར": 7849,
      "་ཧྲོ": 7850,
      "ནད་དུག": 7851,
      "བྱ་བར་རྟོག་ཞིབ": 7852,
      "་དང་རྒྱབ་སྐྱོར": 7853,
      "་དག་གིས": 7854,
      "སུམ": 7855,
      "་སྒར": 7856,
      "་བཟུང་སྟེ་": 7857,
      "ཕྱོགས་ཁག་གི་": 7858,
      "གོང་འཕེལ་": 7859,
      "ཕྱི་རྒྱལ་": 7860,
      "༣༢": 7861,
      "བཟི": 7862,
      "ཁ་བྱང": 7863,
      "་སྒྲིལ": 7864,
      "སློབ་སྟོན": 7865,
      "རིན་ཐང་": 7866,
      "་འཛུལ": 7867,
      "་མགྱོགས་སུ་གཏོང": 7868,
      "སློབ་ཆུང་གི་": 7869,
      "ཡུལ་དངོས": 7870,
      "་དམག་": 7871,
      "ut": 7872,
      "་ཡན་ལག": 7873,
      "འི་ཡི་གེ": 7874,
      "བར་སྟོང": 7875,
      "-2": 7876,
      "▁མཐའ": 7877,
      "ཀི": 7878,
      "▁ཆ་འཕྲིན": 7879,
      "མཐུད": 7880,
      "ཀླད": 7881,
      "་བརླག": 7882,
      "སྐབས་བཅུ་གཅིག་པ": 7883,
      "་ལྟ་བུ་ཡིན": 7884,
      "མིན": 7885,
      "་འཛུགས་": 7886,
      "་ཡོངས་": 7887,
      "sa": 7888,
      "་འཕྱུར": 7889,
      "▁ནང་": 7890,
      "བརྟན་པོའི་ངང་": 7891,
      "ཱུ": 7892,
      "་པ་རྣམས": 7893,
      "་ཧུའེ": 7894,
      "་ཕྱིས": 7895,
      "སྣ་ཁ": 7896,
      "སི་རི་ཡའི་": 7897,
      "ཞི་བདེའི་": 7898,
      "་དང་མི་རིགས་": 7899,
      "གང་སར་": 7900,
      "་སུ་བཅུག": 7901,
      "་ཟིན་པ་དང་": 7902,
      "བྱེད་པའི་": 7903,
      "▁ལུང": 7904,
      "་འཕྲོད": 7905,
      "་ཀྱི་ཁྱད་ཆོས": 7906,
      "་ཇོ": 7907,
      "་མིའི་ཐོབ་ཐང་": 7908,
      "་དེའི": 7909,
      "ོམ": 7910,
      "འཚོགས་པའི་": 7911,
      "ཕུག་ལམ": 7912,
      "་འདི་ལྟ་བུ": 7913,
      "་ཉམས་གསོ": 7914,
      "་བཤད་ན": 7915,
      "་འཇིགས": 7916,
      "་དུས་ཐོག་ཏུ་": 7917,
      "རྒྱུགས་སྤྲོད་": 7918,
      "་བྱེད་པ་དང": 7919,
      "ད་ལས་དོན་རུ་ཁག": 7920,
      "་མི་དམན་པ": 7921,
      "སྒོ་ཕྱེ": 7922,
      "དཔྱིད་གསར་": 7923,
      "དགེ་རྒན་གྱིས་": 7924,
      "ཁམས་པའི་": 7925,
      "་དབང་ཕྱུག": 7926,
      "་དམ་ཟབ": 7927,
      "་དང་མཐུན་པར": 7928,
      "འི་ཆ": 7929,
      "ས་བཅད": 7930,
      "གཙོ་གནད་ཐོག་": 7931,
      "ཞོགས་པ": 7932,
      "་འདི་ནི": 7933,
      "་ཆུས": 7934,
      "་འཛིན་པ་དང་": 7935,
      "with": 7936,
      "་མཚམས་འཇོག": 7937,
      "དམངས་ཀྱི་": 7938,
      "དགོང་ཚོགས": 7939,
      "་སྔར་བས་": 7940,
      "▁སྙིང": 7941,
      "གཤམ་གྱི་": 7942,
      "་དང་འདྲ་བའི་": 7943,
      "་མ་བྱས": 7944,
      "་སྐྱེས་": 7945,
      "་ཀྱི་ཡོད་པ་རེད": 7946,
      "་བྱ་འགུལ": 7947,
      "▁བསམ": 7948,
      "བོད་ལུགས་": 7949,
      "འི་ཁར་": 7950,
      "་ཐུན": 7951,
      "་མེས": 7952,
      "སྒོ་དབྱེའི་": 7953,
      "▁ཁེ་ལས་ཀྱི་": 7954,
      "ང་ཡི་": 7955,
      "་དར་མ": 7956,
      "སྡེབ": 7957,
      "om": 7958,
      "ཐལ": 7959,
      "གབ": 7960,
      "་སྲ་བརྟན་དུ": 7961,
      "འགོ་འཛུགས་ས": 7962,
      "་ལ་གཟིགས": 7963,
      "སྦྱར": 7964,
      "དུས་རབས་": 7965,
      "་རྒྱུར": 7966,
      "འི་སྒྲ": 7967,
      "མི་རིགས་ས་ཁུལ": 7968,
      "གས་ཀྱི་དགོངས་པ": 7969,
      "དབར་གྱི་འབྲེལ་བ": 7970,
      "་ཟིལ": 7971,
      "་བྱུང་ཚུལ": 7972,
      "འཕྲིན་གཏོང་": 7973,
      "་དགོས་པར་མ་ཟད": 7974,
      "ཁེ་ལས་ལ་": 7975,
      "ཙ": 7976,
      "་གང་མང་ཞིག": 7977,
      "གེ་སར": 7978,
      "ཐོག་མར": 7979,
      "གངས་རིའི་": 7980,
      "་གཞོང": 7981,
      "་དང་འབྲེལ་ཡོད་": 7982,
      "་རྒན་པ": 7983,
      "་བཞུགས་སོ": 7984,
      "ར་སླེབས": 7985,
      "▁ཀླུ": 7986,
      "▁མར": 7987,
      "་ཐོན་ལས་": 7988,
      "▁ཡུན་ནན": 7989,
      "▁དཔེ": 7990,
      "▁འཇིག་རྟེན": 7991,
      "་མཁན་པོ": 7992,
      "mo": 7993,
      "སྤུས་ཚད་དང་": 7994,
      "ཁྱོད་རང": 7995,
      "ཕན་ཚུན་བར་": 7996,
      "ལོའི་བར་": 7997,
      "ཡི་དམ": 7998,
      "ཞིང་འབྲོག་མང་ཚོག": 7999,
      "་ཁ་ཤས་ཀྱི་": 8000,
      "དྲན་གསོ": 8001,
      "་ཐུབ་ཀྱི་ཡོད": 8002,
      "སྤྲད་པའི་": 8003,
      "་ཚེ་དབང": 8004,
      "་གཏན་ལ་ཕབ": 8005,
      "འཛུགས་སྐྲུན་ཐད་": 8006,
      "་ཇུས": 8007,
      "ཕྱག་རྒྱ": 8008,
      "ཐིག་ལེ": 8009,
      "ཉིང་ཁྲི": 8010,
      "་ལ་མཐོང་ཆེན": 8011,
      "ལོ་གཉིས": 8012,
      "བཅར་འདྲི་དང་ལེན": 8013,
      "་གཡོལ": 8014,
      "་གསལ་བའི་": 8015,
      "ལས་གཉེར་": 8016,
      "▁ཁམས": 8017,
      "ཀན་སུའུ་ཞིང་ཆེན་": 8018,
      "སྲིད་གཞུང་ལ་": 8019,
      "au": 8020,
      "༥༥": 8021,
      "་ཤར་": 8022,
      "དབུལ་ཕོངས": 8023,
      "་སྒྲོ": 8024,
      "འགོག་སྲུང་": 8025,
      "་བཅུ་གཉིས་པ": 8026,
      "་ཀུན་དགའ": 8027,
      "ཉིན་མོའི་": 8028,
      "་འདུས་པ": 8029,
      "▁ཀླུ་མོ": 8030,
      "་རླུང་": 8031,
      "་ལས་ཁུངས་ཀྱི་": 8032,
      "▁ད་ཐེངས་": 8033,
      "འཁོན": 8034,
      "བྱ་དགའ་ཐོབ": 8035,
      "ཟིན་གྱི་ཡོད": 8036,
      "▁ཁྱིམ་ཚང": 8037,
      "བཤད་པའི་": 8038,
      "མ་དཔེ": 8039,
      "་ཡུམ": 8040,
      "་ལ་ཞུགས་པའི་": 8041,
      "་དབྱེ་བ": 8042,
      "་བསྐོས": 8043,
      "ཧ་ཅང": 8044,
      "ཚོགས་ཆུང": 8045,
      "ཨང་གྲངས": 8046,
      "ཤར་ཕྱོགས་": 8047,
      "སྐྱེ་ཁམས་ཕྱུགས་ལ": 8048,
      "རྒྱའི་": 8049,
      "་གཟེར": 8050,
      "རླངས": 8051,
      "་ཡོད་ཅེས་": 8052,
      "མགྱོགས": 8053,
      "་བི": 8054,
      "ལ་གྱི་": 8055,
      "་མཐིལ": 8056,
      "་འགྱེད": 8057,
      "དམ་འཛིན": 8058,
      "བྱ་དངོས": 8059,
      "་ཁྱད": 8060,
      "སློབ་རའི་": 8061,
      "file": 8062,
      "མཁར་གྲོང་": 8063,
      "སྤྱི་སྡོམ": 8064,
      "▁སློབ་མའི་": 8065,
      "སྤྱི་ཡོངས": 8066,
      "་མ་དངུལ": 8067,
      "▁ཡུས་ཀྲིན་ཧྲིན": 8068,
      "འོག་ཏུ": 8069,
      "་ལས་བརྒལ": 8070,
      "中": 8071,
      "དག་ཐེར་": 8072,
      "་སྤེལ་རྒྱུ": 8073,
      "pa": 8074,
      "་ཏུན་": 8075,
      "ཁྲིམས་འགལ་གྱི་": 8076,
      "་ཆེ་མོའི་": 8077,
      "ལྟ་སྟངས": 8078,
      "་གཏིང་ཟབ་ཏུ": 8079,
      "ཞིབ་བཤེར་ཐག་གཅོད": 8080,
      "་མང་བོ་ཞིག": 8081,
      "ར་སྤྲོད": 8082,
      "་བྱས་ལ": 8083,
      "ལྗང": 8084,
      "་བཅུ་བ": 8085,
      "་དུས་ཐོག་ཏུ": 8086,
      "བཤམས་སྟོན་ཁང": 8087,
      "འཚོ་བའི་ཆུ་ཚད": 8088,
      "ཀྲང": 8089,
      "ལུགས་སྲོལ": 8090,
      "སྐྱིད": 8091,
      "་འཇིག་རྟེན": 8092,
      "ཉམས་ཉེན": 8093,
      "་སུ་འགྲོ་བར་": 8094,
      "དབུལ་པོ": 8095,
      "འཁྲབ་གཞུང": 8096,
      "བ་": 8097,
      "▁རིན་ཆེན": 8098,
      "སྲིད་གཞུང་གིས": 8099,
      "ཤང་ཀང": 8100,
      "སྒོ་ཀུན་ནས་": 8101,
      "དབང་བོ": 8102,
      "་བརྩི་སྲུང": 8103,
      "་ལ་དམིགས་ནས": 8104,
      "▁གྲོང་གསེབ་": 8105,
      "དམུ": 8106,
      "▁མང་ཚོགས་": 8107,
      "ཐེམ་ཐོ": 8108,
      "ནས་བཟུང་": 8109,
      "ཆ་འཕྲིན་ཅན": 8110,
      "་གྱེར": 8111,
      "་ལ་སླེབས": 8112,
      "མི་དམངས་ཉེན་རྟོག": 8113,
      "པར་དུ་བསྐྲུན": 8114,
      "བརྒྱུད་ནང་བསྟན་": 8115,
      "ལས་འགན་གལ་ཆེན": 8116,
      "ལས་ཞུགས་ཀྱི་": 8117,
      "ཟི་ལིང་": 8118,
      "་འོང་": 8119,
      "་རྟག་ཏུ": 8120,
      "ནུས་ཁུངས": 8121,
      "་འཚུབ": 8122,
      "་བརྒྱབ་པའི་": 8123,
      "་འོས་པའི་": 8124,
      "དགེ་སློང": 8125,
      "འཇུ": 8126,
      "ཡུལ་དངོས་": 8127,
      "དར་ཁྱབ": 8128,
      "དམངས་སྲོལ་": 8129,
      "▁དཔལ་འབྱོར": 8130,
      "་ཙམ་ལས": 8131,
      "ཁ་ཆེ": 8132,
      "ནང་ཆོས": 8133,
      "ཇི་ལྟར་": 8134,
      "་ལ་འཇུག་པ": 8135,
      "▁པ": 8136,
      "ཡོངས": 8137,
      "རེབ་གོང་": 8138,
      "འབྲི་ཆུའི་": 8139,
      "ཚན": 8140,
      "མིང་གི་": 8141,
      "བོད་ཀྱི་རིག་གནས་": 8142,
      "་ཚེ་བརྟན": 8143,
      "་སྒྲུང": 8144,
      "གཞུང་སྒྲུབ་ཁང": 8145,
      "་ཟུག": 8146,
      "་ཧྲིལ་པོ": 8147,
      "་དགུའི་": 8148,
      "་མང་བ་དང་": 8149,
      "་གང་དག": 8150,
      "ས་གནས་ཁག་གི་": 8151,
      "་ལེན་": 8152,
      "་འབྱིན": 8153,
      "▁རིམ་པ": 8154,
      "་ཀུན་ཏུ་": 8155,
      "གཙོ་སྒྲུབ": 8156,
      "▁བྱ་བ": 8157,
      "་སྤྲས": 8158,
      "81": 8159,
      "ལྗོངས་ཁུལ": 8160,
      "ཕ་ཡུལ་": 8161,
      "་བདམས": 8162,
      "་དགུང": 8163,
      "ཁོང་གིས": 8164,
      "da": 8165,
      "བྱང་ཆུབ": 8166,
      "་ལ་དམ་འཛིན": 8167,
      "་དེ་ལས": 8168,
      "་ཧྲིལ་པོའི་": 8169,
      "ཚོགས་ཆེན་ཐོག་": 8170,
      "བསམ་ཡས": 8171,
      "▁ཏང་དང་རྒྱལ་ཁབ": 8172,
      "གཟུགས་པོ": 8173,
      "་ནས་བསྡད": 8174,
      "་དང་འཕྲད": 8175,
      "རབ་ཏུ": 8176,
      "ཞེས་པ་ལྟར": 8177,
      "་འགའི་": 8178,
      "དངུལ་ཁང་གི་": 8179,
      "ཉེ་འཁོར་གྱི་": 8180,
      "150": 8181,
      "གུང་ཁྲན་ཏང་གིས་": 8182,
      "ཡེ": 8183,
      "་མ་ཐུབ": 8184,
      "ཉི་མའི་": 8185,
      "་རྣམས་ཀྱང་": 8186,
      "འཐེན": 8187,
      "ཚད་འཇལ": 8188,
      "་འཚོལ་བ": 8189,
      "་གསོས": 8190,
      "་མྱངས": 8191,
      "དྭ་ཕྲུག": 8192,
      "་གསེང": 8193,
      "སྤྲོ": 8194,
      "་རྐོ": 8195,
      "མིག་གི་": 8196,
      "་གཏིང་ཟབ་ཏུ་གཏོང": 8197,
      "་བ་སོགས": 8198,
      "་དབང་གིས་": 8199,
      "ཞབས་ཞུའི་མ་ལག": 8200,
      "ཟླ་རེར་": 8201,
      "་གན": 8202,
      "་ནས་ལོ་": 8203,
      "བྲམ་ཟེ": 8204,
      "▁ཏང་གིས་": 8205,
      "ཨར་འདམ": 8206,
      "▁ཨ་མ": 8207,
      "ཐ་ན་": 8208,
      "ཀྲི": 8209,
      "་ཟིང": 8210,
      "▁སྲིད་གཞུང་གི་": 8211,
      "གདན": 8212,
      "འགན་འཁུར་བས་": 8213,
      "ཚེག": 8214,
      "ཉེན་བརྡ": 8215,
      "▁ཆོས་ལུགས": 8216,
      "་འདོན་སྤྲོད་བྱས": 8217,
      "སྒོ་ང": 8218,
      "སྒྲོག་འགྲེལ་": 8219,
      "གྲས་ཤིག་ཡིན": 8220,
      "་ཐུབ་པར": 8221,
      "ཞྭ་མོ": 8222,
      "གཏོར་བཤིག": 8223,
      "ད་བར་": 8224,
      "་ཡུལ་སྐོར་": 8225,
      "ཏང་ཙུའུ་ཡི་": 8226,
      "ལྟ་ཀློག": 8227,
      "རག": 8228,
      "་སྲང": 8229,
      "▁ལིའུ": 8230,
      "་ནོར་བུའི་": 8231,
      "རྫོགས་ཆེན": 8232,
      "སྤོ་ལོ": 8233,
      "གྱ": 8234,
      "་མི་ཆོག་པ": 8235,
      "་མངར": 8236,
      "གཏམ་གླེང་": 8237,
      "ཨར་ལས་": 8238,
      "་ཡང་བསྐྱར": 8239,
      "བརྟན་ལྷིང་དང་": 8240,
      "རྣམ་པ་བཟང་པོ": 8241,
      "་ཆེན་པོ་གསུམ": 8242,
      "་སངས": 8243,
      "ཆིང": 8244,
      "▁ཞི་ཅིན་ཕིང་གིས": 8245,
      "་སྲིད་གཞུང་གི་": 8246,
      "་འགོ་བརྩམས་པ": 8247,
      "ལག་བསྟར་བྱེད": 8248,
      "དབྱིངས": 8249,
      "ཚིག་སྦྱོར": 8250,
      "༵": 8251,
      "་ཚད་མ": 8252,
      "ab": 8253,
      "མཁོ་སྤྲོད": 8254,
      "སྡེ་ཁག་སོ་སོས་": 8255,
      "དམར": 8256,
      "ཚིགས་བཅད": 8257,
      "ནམ": 8258,
      "་ལག་བསྟར་བྱས་པ": 8259,
      "་བསྲེས": 8260,
      "་ལོན་པའི་": 8261,
      "་ཡང་ཡོད": 8262,
      "པཱ": 8263,
      "་དུ་སླེབས": 8264,
      "བཙོག": 8265,
      "་གྲུ་བཞི་མ": 8266,
      "འགྲེམ་སྟོན་": 8267,
      "ལྗོངས": 8268,
      "་སྲིད་གཞུང་": 8269,
      "གཤགས་བཅོས": 8270,
      "་དུ་མི": 8271,
      "འཇིགས་པ": 8272,
      "་བཏང་བས་": 8273,
      "གནས་པའི་": 8274,
      "་གསར་རྩོམ": 8275,
      "▁3.": 8276,
      "ཟངས": 8277,
      "་ཤུན": 8278,
      "བཀའ་རྒྱ": 8279,
      "་འདུགདེ": 8280,
      "བཏོན": 8281,
      "ས་ཆུ": 8282,
      "་ཙམ་ལ་": 8283,
      "་དཀར་པོའི་": 8284,
      "བུམ་པ": 8285,
      "་རྫས་": 8286,
      "་འདྲེ": 8287,
      "བུ་མོ་": 8288,
      "་བརྒྱ་ཕྲག": 8289,
      "་འགྲོ་བར་": 8290,
      "ལུས་ལ་": 8291,
      "དཔྱད་ཡིག": 8292,
      "ཞབས་ཕྱིའི་": 8293,
      "་གྲོང་ཁྱེར་དུ་": 8294,
      "་སྤེལ་བ་རེད": 8295,
      "་ཐོར": 8296,
      "པད": 8297,
      "མགྱོགས་སུ་གཏོང་བ": 8298,
      "རིགས་དབྱེ": 8299,
      "": 8300,
      "ོར": 8301,
      "་བསྒྲུབས་པ": 8302,
      "་པ་བཅས་རེད": 8303,
      "▁བདག་གིས་": 8304,
      "ལོ་གཅིག་གི་": 8305,
      "ལྡབ་": 8306,
      "འགྲེལ་པ": 8307,
      "་བྱ་ཡུལ་": 8308,
      "མཚན་སྙན་ཐོབ": 8309,
      "ཇོ་མོ་གླང་མའི་": 8310,
      "་ཅཱ": 8311,
      "▁གོང་གི་": 8312,
      "མཐོ་སློབ་": 8313,
      "ཉམས་ཞན": 8314,
      "བརྩོན་པ": 8315,
      "སྣེ་ཁྲིད་པ": 8316,
      "ཨན": 8317,
      "▁ཁོ་ཚོའི་": 8318,
      "འཆི་བ": 8319,
      "ter": 8320,
      "་པ་དེ་རེད": 8321,
      "་སྤེལ་ཏེ་": 8322,
      "གནོད་སྐྱོན": 8323,
      "་རྟོགས་ཐུབ": 8324,
      "དབང་སྒྱུར": 8325,
      "པོའི་ཚེས": 8326,
      "་དག་ལ": 8327,
      "འབོད": 8328,
      "ལྟ་སྐྱོང": 8329,
      "ཐིང་གིས་": 8330,
      "ལྕག་སྐུལ": 8331,
      "་ཞུན": 8332,
      "མ་མཐའི་འཚོ་བའི་": 8333,
      "་གནས་ཀྱི་": 8334,
      "་གལ་ཆེན་ཞིག": 8335,
      "འི་ལམ": 8336,
      "་རོན": 8337,
      "ཆར་ཆུ": 8338,
      "སྡེ་མི": 8339,
      "་གཅིག་པའི": 8340,
      "ཤིས་ཚིག": 8341,
      "མངོན་འགྱུར": 8342,
      "ེའི་ཚགས་པར་ཁང་དུ": 8343,
      "▁ཡུན་རིང་": 8344,
      "་ཀུན་གྱིས་": 8345,
      "གོ་སྐབས་དམ་འཛིན": 8346,
      "ཁྱེད་ཀྱིས་": 8347,
      "་བཏོན་པ་རེད": 8348,
      "་གླིང་ཕྲན": 8349,
      "་ནང་ཞུགས་པ": 8350,
      "རིན་ཆེན": 8351,
      "གེགས་སེལ་": 8352,
      "་དང་ལྡན་པའི་": 8353,
      "འབོད་སྐུལ་བཏང་": 8354,
      "ལས་དོན་སྤེལ་བ": 8355,
      "བཟོ་འགོད": 8356,
      "སྤྱི་དམངས": 8357,
      "ཁོར་ཡུག་ལ་": 8358,
      "འབྲོག་ཁུལ": 8359,
      "འགལ": 8360,
      "་མཐའི་": 8361,
      "ལོ་གསར་གྱི་": 8362,
      "མུན་པ": 8363,
      "་བཟང་པོ་ཞིག": 8364,
      "་བཏེགས": 8365,
      "ཀྲུའུ་ཞི་ཚོགས་པ": 8366,
      "་དེ་ཡང": 8367,
      "་ཀུའུ": 8368,
      "འགན་སྲུང་གི་": 8369,
      "ལྷད་མེད་": 8370,
      "དམངས་གཙོ": 8371,
      "འི་རྣམ་གྲངས": 8372,
      "▁ཁྱིམ": 8373,
      "ཚོགས་ཀྱིས་": 8374,
      "་དཔང": 8375,
      "ཚོགས་གཙོ་གཞོན་པ": 8376,
      "▁ལག": 8377,
      "ཆོས་རྒྱལ": 8378,
      "་སྤེལ་བར་": 8379,
      "པདྨ": 8380,
      "4000": 8381,
      "་ལབ": 8382,
      "་སྲིད་": 8383,
      "་ཤར་བ": 8384,
      "་སྤྱད་དེ": 8385,
      "་ཆེ་རུ་བཏང་ནས་": 8386,
      "ཨེ་ཤེ་ཡའི་": 8387,
      "་རླངས": 8388,
      "་ལོན་པ": 8389,
      "་ཆེ་རུ་བཏང་བ": 8390,
      "་པའོ་": 8391,
      "གནའ་རབས་": 8392,
      "འཐུས་མི་ཚོགས་པ": 8393,
      "ཁེ་དབང་": 8394,
      "འོས": 8395,
      "རྒྱ་མཚོའི་": 8396,
      "ཕྱོགས་སྡོམ": 8397,
      "་ཏིང": 8398,
      "་སྤྲེལ": 8399,
      "▁གོང": 8400,
      "་སྤེལ་དགོས": 8401,
      "བུ་མོའི་": 8402,
      "ལྷག་ཙམ་ལ་": 8403,
      "་གཅིག་བསྡུས": 8404,
      "རང་བཙན": 8405,
      "གློག་ཀླད": 8406,
      "་སོགས་ཁྱབ་ཁོངས": 8407,
      "་རེའུ་མིག": 8408,
      "▁ཞང": 8409,
      "་མར་": 8410,
      "འདུམ་འགྲིག": 8411,
      "་ཇེ་ལེགས་སུ་གཏོང": 8412,
      "▁མཐོ་རིམ་": 8413,
      "▁”“": 8414,
      "་ཕོ་མོ": 8415,
      "་གཡེང": 8416,
      "་རྒྱལ་གྱིས་": 8417,
      "དཔྱད་དཔོག": 8418,
      "གཅིན": 8419,
      "་རིགས་ལ་": 8420,
      "་འོང་བ": 8421,
      "ཡུལ་ཤུལ་": 8422,
      "国": 8423,
      "་དམངས": 8424,
      "ཚད་ལྡན་": 8425,
      "མེད་དུ་མི་རུང་བ": 8426,
      "མགྱོགས་མྱུར་ངང་": 8427,
      "རང་རྒྱལ་གྱིས་": 8428,
      "མ་དངུལ་སྒོར": 8429,
      "་ཁག་དང་": 8430,
      "་དུ་གྱུར་ཡོད": 8431,
      "་སྨོས": 8432,
      "སྲིད་སྐྱོང་": 8433,
      "་བར་བྱ": 8434,
      "ཚོང་གཉེར་": 8435,
      "་ཀྱི་འདུ་ཤེས": 8436,
      "ཚོགས་ཆུང་གི་": 8437,
      "ཟུང་འབྲེལ": 8438,
      "དེ་ལྟར་": 8439,
      "ཅིང": 8440,
      "ཕྱོགས་ཁག": 8441,
      "འཁྲབ་ཁྲིད་པ": 8442,
      "་ལ་བརྩི་འཇོག": 8443,
      "\\": 8444,
      "ཡུལ་སྲོལ་": 8445,
      "ཚང": 8446,
      "དགུང": 8447,
      "▁ཚན་རྩལ": 8448,
      "ཀན་སུའུ་": 8449,
      "་འདོད་པའི་": 8450,
      "དུས་སུ": 8451,
      "་དཀོན": 8452,
      "འདུ་ཤེས་བཞི": 8453,
      "▁སྤྱི་ཚེས་": 8454,
      "་ཀྱི་རིགས": 8455,
      "་ཐའོ": 8456,
      "ལྷན": 8457,
      "་བཟློག": 8458,
      "འདྲི་གཅོད": 8459,
      "སྔོན་ཆད": 8460,
      "་ཐུབ་པའི་འགན་ལེན": 8461,
      "་འདམ": 8462,
      "འཆར་གཞིའི་": 8463,
      "em": 8464,
      "མཚོ་བོད་ལྕགས་ལམ": 8465,
      "▁སྤྱི་ཚོགས": 8466,
      "ཡོངས་སུ་": 8467,
      "སྦྲག་སྲིད་": 8468,
      "་འགྲམ": 8469,
      "གྲངས་འཛིན་": 8470,
      "རྒྱལ་ཁབ་ཁག་གི་": 8471,
      "་ཆེ་ལ་": 8472,
      "་དོག": 8473,
      "གནས་སུ": 8474,
      "མེ་མདའ": 8475,
      "ཞིང་སྡེ": 8476,
      "ཉིས་སྟོང་": 8477,
      "ལས་རོགས": 8478,
      "དུས་སྟོན": 8479,
      "▁བོད་ཀྱིས་": 8480,
      "་སྲིད་པའི་": 8481,
      "་ཞུགས་": 8482,
      "་མེད་པ་རེད": 8483,
      "ྷི": 8484,
      "གཞན་ལ་": 8485,
      "་ལྔ་དང་": 8486,
      "མདུན་ངོས": 8487,
      "སྣེ": 8488,
      "་གཉིས་པར་": 8489,
      "ཕལ་ཆེར་": 8490,
      "▁ལོ་རྒྱུས": 8491,
      "སྲོང་བཙན": 8492,
      "ཏཱ་ལའི་བླ་མ": 8493,
      "དངུལ་ལོར་": 8494,
      "་བཞིའི": 8495,
      "་འདོན་དགོས": 8496,
      "རྒྱལ་ཁབ་ལ་": 8497,
      "་མཇུག": 8498,
      "་ལྟ་བུ་ཞིག": 8499,
      "ཕྱིར་དྲན": 8500,
      "མཚན་མ": 8501,
      "བསྡོམས་རྩིས": 8502,
      "་དགོས་ཏེ": 8503,
      "རྒན": 8504,
      "ངང་": 8505,
      "རྨ་ཆུ": 8506,
      "་བྱེད་རྒྱུ་ཡིན": 8507,
      "་པད": 8508,
      "འཛུམ་མདངས": 8509,
      "འི་སྐད": 8510,
      "འབྱོར་ཕྱུག": 8511,
      "ཡིག་ཆའི་": 8512,
      "ལྷ་ས་ནས་": 8513,
      "ཕྱག་འཚལ": 8514,
      "དངོས་གཉེར་མཉམ་ལས": 8515,
      "གཤེན": 8516,
      "▁ཟླ་བ་ཚེ་རིང་": 8517,
      "མགོ་ལོག": 8518,
      "་བྱེད་པ་སོགས་": 8519,
      "དགོངས་པ་གལ་ཆེན": 8520,
      "་མཚོན་ཐུབ": 8521,
      "་མི་ནུས": 8522,
      "་གསལ་བཤད": 8523,
      "སོག་པོ": 8524,
      "▁མཁར": 8525,
      "་འཛུགས་སྐྱོང་དང་": 8526,
      "་བྱེད་དུ་བཅུག": 8527,
      "འི་སྟེང": 8528,
      "ངོ་སྤྲོད་བྱས": 8529,
      "རྫོང་གི་": 8530,
      "་འབུར་ཐོན": 8531,
      "་སོང་ཡོད": 8532,
      "གཟེངས་རྟགས": 8533,
      "་འགྲོ་བཞིན་པའི་": 8534,
      "ཚོགས་ཆུང་": 8535,
      "ཨའོ": 8536,
      "་བྱང་": 8537,
      "su": 8538,
      "ཚོགས་འདུར་": 8539,
      "▁བུད་མེད": 8540,
      "གསར་རྩོམ་གྱི་": 8541,
      "▁གནའ་བོའི་": 8542,
      "་སྲེག": 8543,
      "གཡོ་འགུལ": 8544,
      "གཡོན": 8545,
      "༥༣": 8546,
      "་འབྱུང་": 8547,
      "་འདོན་སྤྲོད་བྱེད": 8548,
      "བཅོས་སྐྱོང་གི་": 8549,
      "སྤྱི་དབང་མིན་པ": 8550,
      "སྐུལ་འདེད་བཏང": 8551,
      "ཞིང་སྡེ་": 8552,
      "▁གླིང": 8553,
      "བླང་བྱ་གཞིར་བཟུང": 8554,
      "ཤང་གྲོང": 8555,
      "་ཏིག": 8556,
      "མགྲོན": 8557,
      "ཉིང་རྡུལ་": 8558,
      "་ལ་ལྟོས": 8559,
      "དཔྱིད": 8560,
      "ཅེས་བརྗོད": 8561,
      "་གཡོན": 8562,
      "མེད་པ": 8563,
      "དབུ་ཚོགས": 8564,
      "པར་བླངས": 8565,
      "ཕྱོགས་མང་": 8566,
      "if": 8567,
      "ཚོགས་ཆེན་བཅུ་དགུ": 8568,
      "གོ་ལ": 8569,
      "་ཐུབ་ནས་": 8570,
      "་བཅས་སོ": 8571,
      "ve": 8572,
      "བདུད": 8573,
      "ཐིང": 8574,
      "་ཁ་ཤས་ཀྱིས་": 8575,
      "རེ་བ་བཏོན": 8576,
      "་ཁྲོམ": 8577,
      "དེ་བཞིན་གཤེགས་པ": 8578,
      "ཅེས་ངོ་སྤྲོད་བྱས": 8579,
      "་དོན་འཁྱོལ་ནན་ཏན": 8580,
      "ཁག་ཐེག་བྱེད་དགོས": 8581,
      "▁གཞིས་རྩེ": 8582,
      "བཟུང": 8583,
      "རྨས་མ": 8584,
      "▁ཟ": 8585,
      "་དགེ་འདུན": 8586,
      "▁ཁོང་ནི་": 8587,
      "རྒད་པོ": 8588,
      "གྲུབ་འབྲས་ཐོབ": 8589,
[...]
